[UNK]
[PAD]
[CLS]
[SEP]
[MASK]
!
"
#
$
%
&
'
(
)
*
+
,
-
.
/
0
1
2
3
4
5
6
7
8
9
a
b
c
d
e
f
g
h
i
j
k
l
m
n
o
p
q
r
s
t
u
v
w
x
y
z
##c
##b
##u
##f
##m
##a
##n
##d
##e
##l
##r
##s
##t
##i
##v
##y
##o
##g
##h
##w
##k
##p
##j
##0
##6
##z
##5
##1
##8
##2
##7
##9
##q
##x
##4
##3
##к
##р
##а
th
the
##er
##in
##ed
##on
##nd
##es
##at
##or
##en
##ar
in
of
##an
##al
##it
##ing
and
##is
##as
to
##ic
##ou
##ion
##re
##om
##el
##il
##ec
##ent
##th
##st
##am
##ur
##ad
##ac
on
##le
##ro
was
st
##et
for
##ly
##ol
##ir
as
wh
##iv
##ter
##id
##ig
re
##ith
##ow
##ay
be
al
##im
##ch
with
##ation
that
is
it
##ut
##ers
##em
##ot
con
fr
by
an
##us
at
ch
##ul
##ce
he
##ver
##os
##and
##est
sh
##ag
##ain
19
##um
com
##av
his
##ere
##od
from
##ess
pro
su
##op
se
##ct
de
##ri
##ist
##ap
20
##ies
##un
##ect
ne
##if
##igh
or
##ill
were
pl
##ab
##ak
ar
##all
##ld
##ich
##ard
##ate
##ong
##ort
##oc
ex
##art
un
##ish
##ther
##ant
##pp
le
##ber
##ud
##gh
pr
tr
sp
##ity
##ated
##se
##ame
are
##ive
en
##ie
##ack
##ore
had
##ear
##ough
##ov
which
##ge
##ell
##ast
##pt
not
##ian
##ound
rec
##our
##ip
##ment
##ord
##ine
##ally
af
##rit
##ia
##ost
comp
##ight
her
##oun
##ave
##ue
##ary
cl
fir
##cc
##ust
this
ad
200
##og
but
##ous
wor
##te
tw
their
##ach
inc
first
bo
ab
sc
##ions
cont
its
##so
gr
man
##ure
##ical
##ath
##ial
##qu
after
##ould
one
##ome
all
##ra
they
am
int
per
res
also
##ub
##ok
rel
##per
##ide
##out
##ater
ro
mar
tim
##ass
##ign
comm
us
##ire
new
fe
##age
two
##00
##oll
##ru
have
##orm
des
##own
##ence
has
ser
##ree
app
##ond
play
ag
dis
bec
part
been
who
go
##ans
18
##ry
##land
car
im
##uring
year
##pl
##ile
##ted
##ely
##ory
##du
##ition
she
##ance
me
##ations
ev
##ff
##iz
##ang
##ade
br
##lud
we
##wn
off
fin
over
201
##ib
co
##ens
other
##ult
pre
##ric
up
out
##ite
##act
fl
can
inter
ind
##pr
cent
nor
during
dec
##urn
when
##ke
includ
##ount
time
ear
##ice
##ace
##nder
##ember
song
po
##ents
##ks
##one
##we
att
sec
##ced
##ail
into
##ose
bl
more
te
##ward
form
##ied
act
##amp
sou
would
##ason
##port
par
##man
char
##able
##ings
##ces
##ited
him
jo
##ase
most
##rib
##ased
mus
bet
##ix
no
kn
##ild
game
##ates
acc
high
##ious
##old
some
##les
##als
cons
rem
ass
##way
while
##gr
them
##ors
war
may
##iss
##ake
thr
##ph
reg
fil
##ts
only
##lish
##vel
there
##form
gen
how
##fer
record
eng
##gan
under
pe
##aw
##aus
##ood
three
later
##ved
min
##eld
##ick
about
north
film
el
so
em
##reat
through
##ollow
season
work
##ction
##ween
between
199
li
again
##att
bu
mon
follow
ac
qu
##ey
than
ma
sy
end
produ
##ug
writ
##ered
##ular
##ational
##ock
day
rev
win
##ral
##ict
##ters
num
##hn
spec
##ons
col
##ft
pos
sub
rele
lar
##iew
ret
south
##ision
def
second
##fore
##ames
do
##hip
mov
##eric
##olog
bro
alb
gu
##orn
sch
four
where
ph
pres
pub
made
##ury
sa
cap
city
##end
world
americ
dr
##ating
such
##ery
album
air
before
sur
##lic
##ived
##ific
str
##ual
ep
call
used
##ss
##tern
series
##ever
##ily
sever
000
pol
##ics
supp
gener
sing
##ane
pop
being
years
both
many
found
sm
these
op
loc
##ning
set
##urch
hist
##red
10
sim
stud
back
##ected
trans
##io
count
however
##ife
add
##ird
##int
dire
will
div
long
well
star
rece
##ained
12
##ten
number
##ised
##air
##ale
##ities
##velop
bel
##igin
then
ter
##ause
cro
##ron
##led
##ode
arm
batt
##other
##ier
art
origin
desc
##ines
inv
appear
early
music
##oy
##its
##ement
mill
##ise
state
epis
##ince
brit
charac
##atch
several
##ep
##ank
##ton
perform
main
16
including
against
inst
##iver
##ve
##ection
develop
ob
known
##oup
port
##ann
became
team
inf
##son
met
sl
cre
##ield
nov
crit
##ures
direct
oper
##iet
198
mil
est
##ert
show
united
conc
##ful
##rop
##ower
##are
const
##uc
##ern
##though
although
15
cr
century
john
old
11
##yl
dist
dep
lead
land
##ool
17
##ins
##any
##els
##ork
following
bar
near
##up
##0s
sign
##vern
##ative
##til
down
though
contin
##uch
run
##sp
##ley
##elf
194
like
##ather
comple
##ah
##aph
church
dif
##der
var
ste
##ject
##iam
disc
open
##az
##ually
ed
began
196
along
lo
govern
##ized
fam
197
because
##emb
##ains
prov
##row
could
describ
did
##ession
six
red
ever
##une
called
peop
episode
ann
pers
##yp
king
##ued
##au
##ope
dam
ship
hel
##aking
##enn
until
said
##ined
feat
area
##ivers
ger
##ments
american
states
resp
prev
design
adv
west
##eer
##itt
exp
group
people
##lished
aust
start
##ium
##ove
##gest
##rol
##ull
you
return
maj
##ured
##ruct
since
chr
head
##amed
mod
any
british
pass
##ccess
##ind
each
national
##eng
##ange
same
##cept
released
offic
##ty
##ont
##ided
##oman
own
##ists
##ially
##oot
##thern
occ
##ism
around
book
##tend
##ele
ju
aug
med
wee
km
million
life
use
major
##ible
##osed
13
##ouse
five
id
mag
eff
camp
road
august
##res
best
miss
##ently
gre
##ys
small
support
##ash
command
serv
town
school
##stem
##ony
##oss
imp
##ues
##ets
##uth
company
character
bre
rep
final
##xt
another
##anc
195
success
award
river
##ident
sept
public
##omin
if
prot
eur
just
attack
consid
coll
ra
##ales
fur
great
system
september
mid
storm
conf
class
##ina
##ution
ge
hum
line
report
##aining
##app
tit
ext
large
austral
games
what
my
cor
arr
arch
gl
##ob
##ural
av
tri
det
193
black
child
##ms
water
short
##ked
191
rest
##ble
due
la
##ient
##ague
##und
ii
##ute
last
##ired
##aving
now
##aced
ent
june
east
history
vide
##ats
14
oct
##dom
late
##ored
##ives
even
jan
name
way
review
vers
##ately
government
german
##ilt
build
##ene
turn
##cl
partic
home
island
dem
reach
##over
received
ant
##ology
christ
##ogr
har
ins
univers
accord
vis
gun
##ages
described
much
hur
##ech
##ption
cour
ele
within
track
club
species
incre
hal
##ober
march
god
death
men
del
top
##uary
ke
intern
general
##erv
##by
##ling
family
##ility
october
##ting
##aged
played
sk
##ead
##gin
sw
typ
according
##ae
league
times
took
capt
##ropical
##aim
##ified
third
##ody
leg
##rote
ref
##ants
power
##ively
25
list
single
##eal
july
soc
wrote
##ograph
won
##ball
##empt
##iving
organ
video
##ians
control
differ
##ren
##ides
event
##ink
stre
white
sol
progr
allow
appro
apr
##eder
based
dest
##ner
conv
poss
april
tem
story
##iod
included
val
common
person
bas
##ital
##ai
left
belie
york
estab
january
those
division
result
named
very
##ically
##akes
expl
addition
30
prom
attempt
england
##aur
##ances
period
foot
##ew
auth
house
##atter
##ll
##itions
hand
vill
previous
eas
##ven
##ops
bus
##ention
##par
##itch
##ilar
enter
##ature
far
original
vict
##ps
heav
##ought
mo
som
##ham
##ulation
november
##que
##ark
##ik
commun
month
cal
place
kill
europe
light
##med
champ
field
tropical
##raft
stand
##ards
##ished
##bo
##ience
192
december
##ench
built
similar
opp
sug
sent
real
##let
##mer
among
milit
match
songs
repr
hurric
led
make
##ime
present
##ler
further
init
pat
##ense
mark
cur
player
local
##ences
100
law
##iven
wind
requ
still
tour
##sc
##iation
##inc
next
squ
##br
##sh
2009
##por
view
youn
##ness
##gy
bill
trad
2008
##ger
tot
super
2010
##ison
##uss
##ruction
pri
cle
##ars
##aster
exper
rock
iss
tele
##bs
import
brig
repl
role
post
histor
came
plan
##line
fre
low
every
right
band
say
side
##min
love
career
moved
cast
##aff
university
##ival
without
##ott
beh
##aken
polit
coun
often
mor
##ged
recorded
few
effect
rad
##ush
hurricane
##ories
contr
chart
military
caus
tre
##yle
##bert
park
##ength
suggest
memb
order
considered
battal
less
prof
rou
deb
production
army
release
##ister
##ady
see
2007
former
assoc
##elt
level
##ior
cy
sold
##lu
english
week
french
fire
wal
claim
fun
##thing
point
take
refer
##ross
published
repres
##uted
ang
project
##wards
written
##ico
half
different
feder
spe
continued
##wh
roy
surv
##ensive
##side
##thers
##ves
days
##na
ha
##ada
frie
held
forces
manag
international
author
cult
night
obs
21
strong
route
##ared
never
desp
nav
pet
help
prop
force
press
good
##ission
friend
defe
cross
sound
##iter
##iment
stat
##ices
find
jack
gold
##erc
##idge
county
having
chang
compet
##estern
##enc
23
##tended
mount
##vision
##ret
throughout
##itar
champions
members
whe
##ots
2011
sum
become
##arn
2006
##raw
popular
children
particular
##rodu
comb
grand
##augh
version
total
development
ir
earl
title
##bru
##ising
lost
roman
position
pal
rich
##amb
##ize
country
24
##ford
##ple
highway
26
cover
don
litt
pur
program
despite
22
fem
live
pa
##roy
battle
eight
fle
##ipp
fort
southern
little
sit
##aces
want
febru
critic
february
##press
central
represent
reported
activ
gave
##ring
produced
##ylan
geor
ham
dylan
human
##day
free
mich
site
influ
ord
##ailed
cath
##ara
television
once
2012
writing
given
##ened
##ests
##ours
##iety
lab
##ried
##apan
modern
28
coast
president
service
northern
hor
##ama
ground
young
age
sun
afric
equ
##yn
arg
signific
japan
mass
vi
elect
include
region
invol
##echn
hero
western
##omen
##ably
lim
##xim
conn
ball
fact
ill
royal
burn
mi
ve
battalion
seven
making
should
away
body
##con
##atic
too
eastern
dou
dav
wood
struct
##ches
trav
aff
##ploy
occur
tor
techn
2013
##ones
seen
exc
look
##ades
fif
##ress
stated
##play
ft
ten
dev
across
returned
##ax
##sequ
instead
##ese
prim
ships
tro
##ator
guitar
destroy
established
bur
##ological
using
cas
##fic
##ape
50
son
##inted
##otion
190
population
construction
full
##be
america
noted
##iction
announ
ire
championship
27
##ying
##ki
##ither
broad
introdu
reached
net
##ground
developed
building
football
civ
mix
##iec
##aint
thought
players
ireland
##ument
brigade
mean
bi
various
lond
works
significant
vir
engine
important
read
performance
##ef
##self
##rew
william
miles
london
father
indust
himself
kingdom
##used
cert
##ket
style
need
##ne
##iness
pra
bird
fig
##work
##co
front
performed
felt
hy
##ald
##omb
##idence
australia
fall
od
tur
cir
brown
official
put
areas
feet
earth
mer
ver
went
suff
events
fac
ol
##most
##vers
##get
##itive
decl
does
phil
civil
cup
rh
bri
mm
vol
begin
bow
##mp
relations
poem
died
##osaur
relig
sett
##ucle
court
ap
cer
let
range
##ief
hom
vo
##oph
successful
lang
others
##ges
##ino
##ogn
wall
##aign
##ster
##antic
originally
sn
##unch
##reek
##pression
campaign
gal
get
##ael
upon
##field
##me
##ana
##ements
base
##craft
hot
##ering
##ization
novel
started
james
##ung
formed
know
##gether
characters
political
sal
##lo
##ript
women
##ints
##iting
circ
##ration
##ination
proc
pred
special
stars
discover
born
scient
ly
sel
tradition
caused
hold
prote
located
eventually
word
street
hill
##iers
##aves
director
resear
##af
##alth
center
created
nar
pen
able
189
critics
research
##ney
entire
ber
##fall
##ox
enc
2004
atl
##isted
2005
produc
aud
##ament
##epend
wr
magaz
fight
tom
anim
##ested
independ
##ality
##acy
cop
fav
mc
nucle
colon
##arch
together
bir
grow
##oming
meet
bay
inn
##asing
stri
cond
ide
heavy
san
colle
guns
hon
chap
##ries
##ample
##ille
sex
diffic
difficult
mother
##itted
##ects
remained
##enth
depart
##ship
agre
goal
completed
31
nat
scored
non
voc
##orts
loss
##iated
##ivid
australian
announced
##king
fourth
ho
mad
mem
sil
##li
almost
den
##ota
comment
peak
damage
behind
jour
##ee
##anch
reb
least
cell
##enced
##aly
sea
party
rail
##omp
##elling
added
29
hol
##ids
flor
territ
du
ru
##ray
##ream
process
aver
key
##less
condom
followed
months
killed
mach
pitch
wife
insp
appeared
quar
ident
squad
relationship
##mar
inform
##aper
playing
individ
hall
round
##cil
##ique
fa
sour
awards
david
ach
mac
sat
##omm
station
recogn
curr
jew
kh
features
trib
40
hard
##den
##tim
##ky
##osp
##antry
flight
aircraft
##dle
##ius
##gn
##ston
estim
bra
card
2003
appo
185
parl
der
treat
taken
ul
##emy
##ways
fleet
lack
saw
##olution
2015
creat
fund
rank
##uit
##ming
france
##ully
interv
action
subsequ
leading
langu
##esh
tal
ur
##ani
impro
either
mater
##etic
proble
separ
served
recording
case
hen
towards
##istic
parliam
edu
##ata
operations
archae
##ography
los
decided
transport
##utes
clos
rul
wid
##ida
elements
ath
cru
draw
host
past
close
soon
##ency
er
##to
##ze
robert
prem
records
di
##ecut
##cted
commerc
accept
generally
believed
magazine
##igned
flood
move
parliament
cost
rose
tow
compos
council
carey
meas
saf
female
##cent
##my
##ica
example
mex
gir
que
##go
commission
regular
infantry
manager
domin
points
business
fly
##ped
188
weeks
bal
rather
##ned
study
stop
european
##erm
outside
federer
foc
##ators
##ential
##spec
opened
educ
35
cut
##lin
beg
##odes
adm
brought
finished
regard
directed
approach
viet
##oring
wales
##uter
##ceed
##umb
##rict
blue
esc
mal
ven
yard
earlier
##nes
bey
featured
achie
mcc
inh
##imes
##aps
union
secret
teach
sym
redu
respect
launch
victory
mos
member
rain
##read
stru
##oted
sequ
big
##wood
express
priv
##ordan
##board
ey
##ole
condu
prob
##action
anti
radio
##tain
stage
wil
##asion
muse
provided
association
stay
186
indic
working
appearance
opening
village
troops
jordan
tech
##eler
deal
syn
wanted
mot
mult
##sel
gar
##ores
reason
pract
##ellow
employ
winds
particularly
pot
##oid
neg
atlantic
girl
cam
jud
norm
sem
##ania
depression
2014
minor
crew
initially
rap
race
##ouri
evidence
instit
middle
christian
social
##medi
clear
observ
summer
museum
mur
mary
come
office
largest
500
kil
nec
pan
george
sus
##erous
anc
19th
exist
invest
possible
length
##west
##atin
##ago
above
room
type
commercial
ban
sam
##thod
##eter
yards
##oth
cho
##iff
construct
material
hit
must
##ounted
feel
florida
wild
##val
##ker
##ita
##ington
diss
regiment
acad
allowed
prior
saying
nine
##ude
respons
hours
##gg
poor
critical
somet
paul
viol
oliv
quarter
creek
fut
nomin
operation
repub
econ
##cast
##east
whom
strength
econom
lower
liter
pain
lik
quick
specific
reception
missouri
horse
food
##ck
##for
##off
seem
princ
2001
worked
police
society
test
##ville
##oon
##gar
##aries
designed
community
pac
previously
doc
##uel
break
##bor
##ih
##onst
forced
goals
era
fish
##bar
##erson
heart
##vert
##oney
remains
praised
fiction
watch
phys
capital
contract
republic
mart
threat
##ett
shot
scre
prepar
indian
mont
increased
profession
michael
lin
ny
uk
##gu
##iding
coach
account
avail
##rated
##itz
unc
187
media
interview
aut
hu
hous
hosp
##uation
theat
stone
interest
surf
background
##gypt
##ving
units
##ended
studio
commander
egypt
taking
proper
writer
##ronic
object
replaced
face
##nal
thom
##ula
##elled
parts
richard
##xas
inj
##usion
##ributed
navy
industry
dom
ot
##ma
##erved
##ites
##lement
##abit
assist
subst
discuss
approxim
section
##band
##ste
dead
##ription
commit
##anned
cycl
religious
college
bod
##head
##reg
highest
reviews
henry
happ
##olic
##eston
canada
claimed
beginning
estimated
mph
pay
rang
##eth
##round
##atory
except
carol
imm
certain
ox
touch
##omet
forest
##ulf
##ibility
canad
joined
oldham
establish
travel
36
lines
placed
grad
assemb
green
japanese
average
dig
##men
##stand
stories
change
##ulated
##ump
training
signed
suggested
involved
##ecutive
bab
wat
##ows
intens
increasing
introduced
45
pu
##ties
scen
itself
183
immedi
transfer
vietn
sometimes
our
##uk
today
arab
term
occup
structure
athlet
olivier
cat
##imin
##aker
scene
going
complete
mexico
00
give
male
names
piec
zeal
##back
##gen
##ari
##anna
irish
##yer
##of
thus
##ready
abs
amb
india
airport
additional
available
date
ran
sen
##ask
staff
language
hun
##down
whose
##ector
plot
remov
nearly
fifth
je
ren
##ases
told
##ume
##porary
thomas
woman
think
##arily
chic
contem
shows
friends
approximately
dut
dark
already
anth
##achel
rob
surround
damaged
appointed
native
penn
size
deep
##ections
compan
britain
ca
##gl
disp
winning
turned
particip
issue
debut
cathed
probably
cou
hop
jin
lay
might
##apt
boy
students
lyric
cad
espec
##ote
##ective
##quar
news
184
passed
angel
pacific
lord
##acing
admin
twent
board
better
quest
complet
captain
zealand
cred
upp
##zz
withd
##ateg
display
network
doll
daugh
tar
##ises
forward
notes
overall
##inese
visit
##osaurus
especially
mat
##oration
##ability
exh
enough
60
dro
failed
roll
##bc
chinese
space
bridge
running
mixed
lou
##bers
exam
##ails
musical
dub
mel
##ocks
2002
emp
wheeler
limited
natural
lake
##nel
iii
ordered
future
nin
##fect
##lor
plat
spent
includes
remaining
moving
arrived
changes
virgin
department
education
ast
##rd
ali
##ells
usually
larger
breed
peter
##stein
canadian
cathedral
##onse
concept
grant
slow
broadcast
birds
birth
latter
saint
##tr
##ios
##ening
span
required
mountain
upper
jer
##ilities
decision
voice
mr
nature
oly
wide
comed
##riage
traff
remain
##ference
response
africa
olymp
##inct
##orial
##agon
2000
centre
reveal
schol
prevent
38
corn
iron
jun
mention
##ners
##oke
related
poet
##ification
feature
cm
mounted
self
groups
professional
rachel
tv
##kn
##ecting
score
blood
films
supported
territory
bad
fer
living
oce
##ca
##ga
##ken
##omes
box
science
scott
ended
positive
larg
billboard
frequ
pressure
mort
money
pun
xen
health
finally
books
culture
squadron
##under
##uals
##ifa
becoming
charles
temper
ga
haw
hair
mom
##su
##isc
always
shown
provide
headquar
smaller
ben
fox
got
log
##wor
##oles
trade
1995
temple
discovered
private
75
batter
##hou
##ining
##uments
minutes
subject
shortly
gods
bord
jam
nations
##ii
frank
experience
defeated
dj
pian
tax
##iest
##key
bowl
subsequently
##selves
surface
morn
van
##aded
##ulted
effects
cele
##aring
##ishop
##rael
concert
personal
makes
##eign
unit
greater
calif
counter
scientology
dyn
pair
##ault
##zy
intended
##eless
franc
intell
percent
mostly
teams
favor
idea
problems
hus
master
pil
und
##kan
##idents
learn
numbers
conclud
collection
keep
captured
galv
largely
coup
fest
wing
##acted
sev
##pped
themselves
metres
constant
arrang
valley
market
referred
haifa
primary
machine
queen
likely
californ
russ
sov
tenn
##ban
##well
##ams
whole
##ples
method
2016
product
croat
cric
ded
gall
yet
##iva
consist
guard
oppos
traffic
xenon
cause
ll
om
pow
##lim
##ror
##iser
israel
location
portug
##uck
entered
tower
aer
bomb
gi
sand
contains
amount
emer
magn
square
ultim
constructed
fail
jose
##oor
##ging
##urs
che
adop
script
majority
greatest
listed
ranked
lyrics
ocean
headquarters
morning
ray
anal
chief
leaving
cann
1999
##ending
starting
dum
kr
ross
##ds
##gian
##atively
asp
##ander
##ria
election
studies
officers
whether
information
galveston
fans
gro
os
##mon
##ergy
tourn
competition
brief
jewish
companies
##aut
##essed
##ously
newsp
color
create
fighting
journal
graph
brad
poly
##gress
##onym
changed
celebr
33
80
##fact
##atops
beach
forms
theme
publish
episodes
concern
runs
standard
soldiers
proposed
administ
lived
liver
ple
takes
##tar
##pool
##jected
plans
spir
attr
artist
influence
independent
agreed
launched
committe
2nd
aw
ale
bud
bound
ce
lif
lady
path
rom
##light
##yr
##urity
##change
ital
##teen
bring
movement
singles
constit
increase
meaning
current
california
cra
##rison
##isions
##outh
shoot
##illery
compared
##lands
care
assigned
minute
catholic
traditional
quickly
here
rat
##bed
##mas
rein
##andon
true
meant
revolution
artillery
sixth
determ
villa
trees
double
occurred
chicago
400
ut
##yc
things
##icated
leave
ens
env
corps
inside
refl
focus
hospital
32
fol
latin
nix
##umn
adult
serious
phot
appears
services
archit
victor
speed
defeat
destroyed
condoms
investig
done
horn
kick
tons
##ba
sched
longer
schools
consider
contemporary
bul
hund
mas
##tained
##iny
##anced
##oms
asked
alice
##ortun
scot
finish
acqu
complex
awarded
source
hundred
cand
fow
gh
pit
purch
beat
carried
access
something
polish
sky
initial
proteins
rapid
cyclone
daughter
300
cold
ign
marriage
dism
flow
1998
ending
writers
brother
buildings
conducted
princip
ott
70
thick
alkan
simp
district
annual
associated
status
burns
ancient
twenty
fant
ram
sav
##ev
##eas
throw
chall
##osph
image
minister
african
empire
ess
##oo
##itation
##itude
conference
chem
unable
married
conserv
1993
albums
commented
husband
bank
dail
tay
##ex
##anas
spring
imag
numerous
castle
individual
scenes
liverpool
nixon
1st
dra
habit
ow
##kel
##itor
chann
accomp
positions
crown
somers
producer
inspired
47
##istics
texas
##ologist
polic
##itting
tracks
management
##aught
39
pul
##pre
terms
attacks
issued
mosley
somerset
bed
##anta
earned
defense
slight
safe
begins
waters
piano
bon
bol
bid
fear
giving
##her
##urg
20th
planned
scr
marked
actor
1996
portray
directly
variety
edge
busch
figure
document
baby
daily
pick
pict
via
your
yellow
##ding
thunder
##ands
search
##alled
recover
performances
##ylv
advent
occasion
christmas
experi
historical
nuclear
immediately
committee
swe
##umed
perfect
drum
metal
organization
spanish
soviet
taylor
fell
kind
##house
##bery
abandon
disapp
##ension
transl
helped
combat
fowler
90
wound
##rical
thir
##rovers
rear
closed
financ
leaders
casual
suffered
rhy
multip
screen
42
gard
mic
nation
##bury
##cend
suc
##ocr
controvers
uses
presence
crow
nearby
impact
##like
bass
bond
jane
mol
row
##joy
##once
stad
really
##ify
##athan
##ibly
peace
mission
raised
presented
federal
cultural
susp
paper
rif
sir
##anded
##essa
weap
prec
paris
maxim
continue
covered
vocals
rule
diam
mun
##sylv
##erve
##olf
fruit
sport
composed
##aha
attempts
hands
figures
symb
carolina
pennsylv
virginia
link
mis
extended
incor
below
##iami
course
##chester
beyonce
rough
sac
##imony
attend
plant
relief
##rupt
dise
meyer
canc
block
officer
purp
selected
vocal
bodies
assembly
##standing
architect
fill
mile
ton
##icted
wash
ash
shar
deg
##apo
promin
sports
enjoy
higher
1997
appearances
hyd
cricket
hour
miami
ris
##uing
##ental
##uries
offensive
text
countries
advance
extre
germany
promotion
##ipped
needed
protein
sexual
necess
44
nico
rush
##ires
altern
shr
places
arts
compl
highly
powerful
situation
veh
cadm
analys
cab
fair
kak
lock
##ils
##aging
##overs
recent
clim
bob
emper
distance
edition
attacked
allowing
entertain
somal
silver
comedy
festival
da
ka
rate
tel
##ny
##iate
##vement
##gal
##he
##pa
##pole
inters
##ribution
singer
opera
governor
confir
labor
theatre
pennsylvania
cadmium
##isation
foreign
##aped
energy
resc
northwest
movie
advant
model
jackson
widely
academy
removed
##track
51
bor
bene
jim
lot
##rate
##ication
prince
##ovic
compr
means
offered
active
remix
genus
protest
levels
soundtrack
copies
peaked
scotland
rout
wa
thous
sha
scoring
182
##izing
1991
doct
chris
typically
attempted
opportun
combined
meeting
respectively
question
mess
sister
wear
##hood
##ros
reform
china
peron
branch
musc
themes
responsible
touchdown
alex
envir
stadium
fast
lu
##anz
anderson
##ado
##aven
##rie
##abor
##send
emb
dress
sets
famil
describes
islands
observed
activities
candid
dun
sales
##gs
##tered
reign
appar
formation
1992
winter
smith
instr
heavily
matches
audience
braath
houses
vehic
kakapo
dream
lie
##lict
##anes
stra
parents
1994
entr
rights
activity
looking
reduced
37
48
76
wave
##ha
##isa
chronic
##ulations
resulted
carry
minnes
northeast
quality
defence
armed
respond
glob
domest
concluded
minnesota
mech
##uated
##ican
stating
##ems
residents
calling
townsend
reports
extr
contrast
conditions
completely
hawai
spirit
italian
channel
environ
3rd
et
jul
##bre
##inal
##isl
##ura
##utions
##rial
managed
##athus
featuring
efforts
europ
separate
rosebery
kilomet
revealed
intellig
folk
bh
overs
tun
##beer
##hold
##ented
shiva
##ift
##ella
clar
##ogue
plays
finals
liber
specim
artists
description
refused
progress
declared
honor
eye
meyerbeer
hors
lib
sle
##bird
##esb
##ays
webs
finkel
therefore
1970
issues
walpole
survey
independence
strugg
finkelstein
52
categ
fat
tessa
yue
##atives
##ingu
alle
##emic
coming
##essions
sust
offer
security
seasons
150
expected
titles
elev
legisl
naval
casualties
emperor
sr
sense
##iro
##stone
##road
grass
weaken
actions
charl
mainly
##apped
types
hait
illino
words
border
ottoman
nicole
ec
nest
push
##hl
scale
manu
becomes
weather
attention
actually
job
assault
demonst
behav
illust
excav
practice
34
core
ros
sor
##icip
##use
##ulpt
neigh
spect
recomm
sculpt
struck
tournament
reinfor
braathens
dog
dang
lb
luc
ps
roles
##lers
##iber
advert
actress
write
columb
legal
viewers
primarily
letters
hotel
vietnam
ultimately
entertainment
manufact
bishop
mog
rug
##met
##ek
##era
##onents
##room
alone
cong
1990
termin
johnson
planet
accepted
achieved
sequence
portugues
cannot
bott
fully
tree
##rid
##enue
##alty
react
##essor
elected
qual
colony
foundation
distinct
farm
authority
rainfall
newspaper
portuguese
dur
mob
nick
tint
##rain
##sen
##jo
##ano
##asy
step
chair
##berg
prison
spain
spread
apple
181
workers
##ledge
##elsh
alongside
exped
antimony
authorities
khan
flooding
measure
moment
slightly
incorpor
es
hers
mu
pound
ridge
##mond
tru
##eller
broken
1986
owned
battery
data
males
sarn
welsh
##bl
##bon
##aen
inches
##oper
orb
computer
twice
perman
fey
defensive
surre
artic
concent
campus
conflict
skin
standing
affected
journey
##ceeded
expressed
murder
##onymous
domestic
mechan
tintin
aid
bull
nesb
zhou
##cript
##uff
##ims
height
compar
180
battles
showed
titled
convers
historic
officials
apart
ceres
flying
physical
louis
disease
rid
ta
wed
##lies
##ych
##kh
##ena
andrew
toward
##uled
neut
spot
##astic
ability
direction
barrow
varanas
avoid
deliv
doub
cerem
environment
varanasi
dv
kar
##ka
##kin
##enant
##igan
##rian
cook
tend
says
influenced
odaen
snow
angeles
mentioned
nesbitt
49
lives
sides
##cing
##hel
##ols
eva
acting
produce
continues
##while
propos
earliest
sites
narrow
encour
individuals
composition
dumont
financial
advantage
illinois
odaenathus
cities
din
jump
oil
##ya
##onna
alab
##illa
else
singing
founded
lands
##ancy
resulting
torped
engineer
admir
digital
exhib
olympic
adopted
mogad
sarnia
torpedo
65
cin
hope
executive
appeal
studios
officially
basis
represented
equip
sources
potential
withdraw
dedicated
analysis
cit
##oud
contain
manchester
agric
doing
capture
pattern
chapel
losing
wilhel
surrounding
scholars
thunderbird
dance
faced
vic
vess
##rane
##writ
##aming
spl
note
boat
relatively
18th
emph
drive
student
medical
effort
extra
require
letter
transferred
maximum
washington
gang
kg
##bour
##een
##lings
##tv
frag
attended
chor
##ulate
##odon
##ills
unlike
##iana
compound
feed
1988
older
tried
organized
clean
function
females
freeway
piece
agricult
eat
rod
##kare
##rect
##eck
##adel
conver
proved
##ishu
##gend
notable
imper
charge
opin
helms
element
golden
meanwhile
beyond
target
omaha
joseph
alabama
46
64
die
eth
kent
##uous
shape
##umber
##ogen
images
flag
divided
edward
designated
possibly
believe
baseball
animal
archaeological
literature
intensity
determined
cust
cub
dar
draft
rar
##ta
##iations
##wide
##itness
plum
prime
##izes
weight
follows
1960s
repe
trip
results
charts
paid
argent
innis
institute
dissip
mogadishu
fix
md
mouth
sens
ingr
##station
unkn
content
arms
creation
1980s
1940
1964
returning
supporting
restaur
visual
solo
historian
structures
homes
treaty
mccall
simply
wilhelm
emphas
iv
jup
kore
pine
paint
rit
sis
##lied
##ero
onto
reaction
##otes
##osh
##agan
underground
mind
portion
kept
importance
projects
purs
technology
knowledge
growing
secretary
economic
couple
entrance
rugby
equipment
lane
rare
##wise
##urb
##ety
##ette
chos
deploy
legend
perm
playstation
filming
depth
leader
grew
weekly
##where
argued
railway
55
53
au
eag
rise
rih
##oe
share
##istry
##asty
weak
flu
miner
guest
landing
publication
suggests
criticism
hamels
buried
currently
##timore
baltimore
website
rihanna
gained
les
tact
##mes
##esis
##acement
lew
coal
belong
advanced
causing
reference
palest
criticized
orders
label
volume
religion
escape
synth
breeding
djed
jupiter
56
5th
ba
ib
math
oh
##fl
##ez
##rative
##eratops
##edar
inch
stock
##irt
adj
containing
newly
##prise
democr
reaching
debuted
claims
property
dismiss
abandoned
multiple
micro
prominent
horses
djedkare
bru
hib
outer
##vin
##och
##po
theory
##orter
beaut
shel
excl
enemy
column
defin
defend
1947
glass
personnel
torres
volun
encoun
faith
administration
chosen
43
ahead
bell
jon
kings
mut
##ati
##enge
rejected
##osoph
try
trou
##ached
consecutive
120
youth
cases
favour
strike
cells
seems
granted
molec
unknown
cart
igu
ry
atm
deities
secondary
dram
1941
visited
commonly
##white
settlement
condition
chapter
increasingly
scottish
francis
crazy
straight
applewhite
bc
bbc
haven
##more
##la
##lam
anonymous
unf
train
truth
##phia
regions
max
seconds
broke
address
1987
barb
##azz
passing
towns
systems
versions
request
growth
identified
problem
nominated
senior
temperature
wounded
risk
dvd
##adelphia
atmosph
41
bat
greek
hart
kir
ring
rac
save
##dh
thing
##ala
congress
sud
unique
trust
operated
1970s
promoted
killing
philosoph
egyptian
fantasy
9th
cry
dw
fame
fash
opt
rub
selling
##mun
##lines
##iant
##ike
##ads
stations
fired
applic
nothing
colour
aired
slam
1989
1984
famous
1972
roads
opposed
mike
ode
agreement
memorial
urban
premier
motor
croatia
accompan
4th
54
bern
camb
hyp
mig
tell
##nest
##iced
##aine
##ighth
##abb
arc
##ordin
serve
cool
##rick
1985
repair
raid
swed
controlled
biograph
virt
animals
choice
ai
ari
hms
mand
none
sin
tan
tail
vert
##asc
##rey
##stream
stan
sund
##ips
boats
contact
gram
reserv
interchange
indu
filmed
writes
drama
1960
myth
explained
speak
ideas
cardiff
subsequent
semi
pieces
cougar
poetry
crowd
confirmed
bit
gord
gives
lov
rog
vul
##icient
reun
chains
leon
impress
bright
joint
consisted
register
invasion
landfall
1944
130
trial
keats
calc
michigan
philadelphia
pitched
regarded
rapidly
weapons
families
herself
bats
dry
fal
mir
matter
##aust
##don
##iqu
##icks
shell
##umes
send
##illo
extend
resemb
maria
actors
mush
highlight
##awa
minim
1990s
transit
maintained
##resp
humans
value
battalions
williams
premi
injury
dropped
seventh
failure
aspects
57
dani
gulf
##ls
##inity
why
##otyp
fresh
carl
retired
southeast
phase
##fully
steam
province
extensive
belief
fung
penins
prepared
dutch
600
bost
catch
dial
drop
gain
ice
mist
rot
##ja
andy
##iring
italy
chel
##uli
orch
##ieval
abu
flank
mah
southwest
concer
steve
medieval
km2
protection
laid
connected
significantly
creating
jeff
sustained
bes
gas
kur
rival
wolf
##onom
##itable
trail
adapt
perh
emotion
americans
supply
passes
basket
champion
finding
facilities
walls
producers
recognized
budget
scheduled
lieut
96
gab
hem
hell
sought
wish
##ees
##ris
thin
##aria
##rete
stones
chose
reconst
cooper
parall
monument
##amese
crus
distingu
starts
delay
surviv
popularity
nucleus
powers
conservation
necessary
intelligence
surrender
perhaps
cited
fought
il
rating
##can
##mark
##ato
##isy
##theless
##olved
altar
consequ
comic
exec
unus
recently
soft
generation
1981
##apping
household
losses
treatment
martin
vietnamese
frequently
policy
libr
iguan
dated
motion
naz
nathan
##cription
##fort
##eda
seg
##ifying
cole
ends
crash
depend
prompt
priest
regarding
employed
gradually
constitution
degree
bottom
thunderbirds
cambod
700
bin
fellow
ron
sap
wis
##oen
##onent
##elle
shaped
comes
##sey
contained
gray
prefer
attorn
wars
##ologists
##oys
distribution
179
steph
collected
1939
convention
finds
industrial
wrest
safety
conduct
oxford
pilot
##eastern
psych
peninsula
attorney
73
eld
kang
nc
vice
##lusion
##thur
##iments
cham
lev
##sea
contributed
join
gameplay
wins
worldwide
severe
simple
17th
1942
serving
allows
macle
improved
negative
##borough
athletes
astron
habitat
cinem
fashion
gordon
61
62
95
aston
cd
egg
fan
lisa
nba
sie
ty
witness
##ua
##ias
store
##ivity
alf
frame
##opes
neither
##acks
incident
##ansas
portra
concrete
##ancing
1950s
1918
turner
solid
effective
programs
electric
championships
entirely
commissioned
economy
fictional
dynasty
challeng
volunte
lieutenant
800
97
cav
dates
hind
jain
pap
ts
##rig
##iot
##iled
stages
##eton
items
pros
##apes
boise
##outs
mario
floor
canal
centuries
muslim
setting
transm
1968
1969
expanded
sentence
turk
earthqu
reasons
negot
normal
slowly
drawn
sweet
europium
kilometres
imperial
lewis
exclus
boston
dota
gully
han
jac
poll
tall
##rum
##rang
##win
##ingly
##rec
##lywood
##ched
##erse
plate
upd
decade
decades
12th
1975
juan
deaths
planning
russian
attract
chemical
experienced
municip
roughly
expedition
chorus
72
85
bart
gil
gross
kits
nich
##mans
##de
##iences
##asure
##amin
stal
##ola
##ayer
##ava
firm
worth
allied
##oked
evita
interact
engaged
pope
terror
1965
1974
didn
greg
avenue
evening
##ographic
organiz
authors
patrol
##bridge
summ
massive
transportation
eyes
girls
occupied
occasionally
81
94
hin
loy
merc
sector
ye
##uan
##uate
##set
##oir
##pass
##erted
##ini
##ompl
##adh
##ading
##ider
isol
isab
##utz
##ersey
##istan
recre
adap
bron
quite
##anny
churches
editor
passeng
additionally
laws
##shire
speaking
successfully
holy
violence
dollar
platform
purchased
disappear
khanh
71
jurch
rome
rivers
wick
wides
##ule
##sw
##inn
##ela
##thm
##anda
abb
marsh
brid
formula
liu
brook
simon
164
declined
jamal
wedding
bath
drew
hang
map
rene
sail
##yson
##hire
##itan
##lyss
arsen
spons
marl
accompl
remn
assass
elimin
subm
longest
160
1946
owners
protagon
corpor
arrival
details
stret
experiment
politics
brian
begun
pupp
dublin
learned
tennyson
briefly
purpose
category
permanent
paintings
macleod
cul
cos
jes
sar
sid
tu
zone
##eed
##eals
##town
##han
##arian
##ules
##ocated
grav
marine
applied
impr
interior
accident
moves
guide
simone
adding
performing
crime
1950
possibility
basin
billion
technical
settlers
braz
literary
exception
thirty
hydro
instrument
ble
hired
kat
lit
lic
##rence
##atus
##amy
albert
##utation
seat
##unk
unsu
##iance
contrib
roof
##ffman
acres
door
guy
phill
calls
developing
1966
1952
justice
corresp
deter
1936
1919
fields
freed
discovery
happy
participated
##worth
symbol
enjoyed
routes
responded
accompanied
earthquake
correspond
fuel
hip
hung
ulyss
##bled
##rons
ther
##eds
##isers
ones
heard
##oses
uns
##okes
decre
charter
brothers
populations
belt
oldest
110
177
stew
heads
characteristics
clubs
moon
initi
speech
competitions
combination
engineering
existing
existence
painting
anthony
ulysses
77
dru
dock
fount
ni
vision
##ym
##pread
##ications
##aked
lear
##pty
##ipl
reserve
marc
goes
carib
joy
consists
##phy
subt
submar
1973
magic
grey
1930
lasted
reviewers
typical
younger
coastal
dougl
biography
cardinal
funding
dominated
neck
benef
thousands
opportunity
turkish
widespread
59
aim
caught
fit
gri
jazz
kenn
mine
pav
rum
task
##com
##come
##uct
##ni
##water
##zer
##aser
##iday
##usal
chance
supre
##iston
tra
resident
usa
capable
receiving
depict
1967
expans
anything
missing
greatly
classic
turning
reality
everything
mountains
georg
affair
technique
holding
closely
cruiser
stopped
substant
##works
hornung
vehicles
weakened
ceremony
unsuccess
66
98
cens
jersey
ori
tas
tells
witch
##born
##aire
##itors
##ici
##iles
##agre
allah
aml
descend
evac
flash
decline
noisy
monarch
acid
175
provides
headed
serves
myc
1930s
1914
courts
legacy
storyline
similarly
colonial
railroad
inspir
derived
creator
rules
banks
assistant
restaurant
iguanodon
astronom
caribbe
6th
bought
kel
pup
rio
sed
sort
##cle
##body
##laim
inner
##entially
##pton
grade
##athers
resour
##ifications
supposed
locations
invited
downlo
classified
viewed
survived
palace
##araj
reading
falls
hills
innings
flights
rolling
filled
haiti
battleship
dissipated
chelsea
orchest
douglas
caribbean
cot
dim
jay
rural
sang
table
##ram
##rest
##vens
##har
##zac
asia
##cher
##estone
shared
##agn
##abil
exact
trying
worship
perry
resist
evil
maeda
receive
novels
1945
1971
describing
ways
destiny
georgian
electronic
regional
colonel
rebu
watched
establishment
puzz
alien
constantine
ratings
acquired
opinion
custom
repeated
eagle
hibari
atmosphere
dan
eighth
fine
gate
jones
lad
mtv
pack
qedar
von
##ruli
##ji
##acity
##eme
anton
##ighter
##aka
exerc
spacing
boys
amate
intention
whereas
phoen
1982
crimin
176
steel
evergl
moder
entry
demand
romani
penalty
focused
venus
teaching
mortal
opposition
boliv
converted
library
everglades
dod
dating
ech
lamb
mul
wy
##bur
##ona
##ador
franch
##iful
plun
enl
recru
pregn
knew
##issance
regime
infr
1980
depicted
lover
1976
providing
1956
protect
1916
1913
250
explos
entering
moz
engineers
poems
uncle
assistance
renamed
arranged
oslo
succeeded
rescue
mushroom
brazil
69
87
8th
lenn
tied
##rant
##ilton
conqu
orn
##ardo
lee
##elli
##ights
agent
partners
attached
defined
strateg
supplies
10th
112
1943
expos
camps
township
communist
##book
prize
##ipping
certified
holds
tomb
separated
immig
credited
credits
methods
consisting
romantic
ghost
article
delivered
citiz
basketball
siege
fel
hits
patt
sad
##bles
##ns
##eman
##uls
hear
##uma
##rier
print
spin
##ube
desire
outstanding
pole
secure
##ropri
depos
stevens
1963
commanded
morrison
professor
##iece
civilian
colonies
rangers
athletic
examples
controversy
dinosaur
rarely
sudden
hindu
adapted
nas
util
voy
##burg
##kins
##je
##xe
##aling
##rot
##emia
chess
plain
arthur
unn
unl
leaves
prey
##mann
remar
##issipp
eliz
soil
##attle
transform
mississipp
reputation
protected
classes
australians
correct
##oba
window
walter
references
labour
circum
hollywood
archaeology
indicate
montana
accounts
##aska
remainder
bradford
shooting
utc
finishing
portrayed
alexander
columbia
truj
ritual
sunday
daniel
fountain
ecc
lat
tests
vent
##ture
online
conte
freder
anzac
worst
soul
warm
undert
divine
16th
11th
1978
missions
1953
turns
occurs
introduction
facing
producing
memory
denied
appoint
maryland
feelings
specifically
hearts
threatened
croatian
chairman
agricultural
trujillo
bos
rand
##no
##ti
##ora
##enz
##entions
##uri
alan
##agues
proh
exit
noting
roxas
offense
interested
indig
acts
##ocked
strand
studied
divisions
appearing
leads
stef
passage
successor
sword
bush
communities
views
replace
statement
connection
wooden
homer
getting
scientific
recognition
samuel
feeling
substit
favorite
masters
alternative
charlie
mississippi
7th
91
eu
nbc
##cy
##mel
##rations
##ients
##oz
##gie
##hed
nether
##pping
brand
warri
howard
maintain
##ructure
1915
reviewer
basic
seeing
activision
predec
wrong
duke
lords
dollars
dynam
gallery
principal
picture
rifles
message
global
##break
dismissed
arsenal
supreme
plunket
79
gam
##sch
##taining
##30
##orters
##oul
##elve
##str
##acent
##ersed
plants
twelve
##onder
attributed
charges
knots
##aws
retire
capacity
122
##ront
instruct
continuing
enterprise
calvert
opponents
changing
involvement
veget
tribes
drawing
academic
hugh
discussed
ninth
considerable
extrem
specimens
isabella
74
cu
dna
danny
fab
hud
session
saraj
tie
taught
vary
yank
##eenth
##iar
theater
##orer
inland
##itage
##rel
sty
forests
##oting
##osis
shut
##aga
##ctions
exchange
##arts
leuk
marks
carbon
wealth
offers
##kson
someone
releg
1948
collect
1917
##ews
standards
settle
difficulty
ruled
towers
scholar
sevent
photograph
##evo
challenge
adventure
dangerous
stephen
kitsune
sarajevo
88
99
cory
faces
jif
##fri
##eu
##6th
##elin
##idden
alg
shore
spr
##tegr
manner
decor
subs
signing
discip
1979
campb
1951
demol
superior
rocky
talk
teacher
autom
absor
guardian
victoria
split
emotional
bolivar
frederick
yankovic
ah
dag
mam
mode
nap
page
races
si
sell
tig
wim
yan
##eper
##err
##esc
##itled
##aments
alph
##imet
shop
##avia
proceed
##abeth
##berts
heritage
cloud
##anger
##ultane
joe
##iously
consum
##graded
##ugu
simultane
121
landed
1961
breaking
1954
archb
brigades
replacement
historians
nighting
crossing
relationships
observations
ancest
nomination
##know
leadership
somali
candidate
clarkson
parallel
chamber
mozamb
jifna
fro
gle
lap
santa
tank
##nell
##dal
##wich
##orous
##isf
##eline
##ivals
##aya
##ceived
##osa
sher
##istol
##illing
cloth
##raf
roberts
marines
agency
parties
partial
secured
blocks
teeth
paras
accur
simps
estate
##ropol
distributed
classical
1937
legs
believes
walk
destroyers
brien
rooms
wilde
jerusal
bringing
adults
skye
bono
documentary
picked
intersection
behavi
recommended
##ranean
francisco
fungus
organizations
amateur
extremely
nightingale
simpsons
jerusalem
bure
diet
gone
gather
ml
pir
sections
wic
##eor
##iable
##gas
##hi
##asions
##rected
##eland
##umps
##avada
clay
adam
adams
carter
genre
showing
annivers
missed
1955
godd
listen
streets
##iveness
windows
##ivalent
surviving
nevertheless
hamilton
territories
languages
multi
banai
immediate
surrounded
olympics
concerns
rifle
diameter
extreme
tunnel
argentina
municipal
isolated
learning
expansion
3d
82
89
dipl
gor
hoc
lanc
option
pale
sons
tick
vac
wants
##nic
##ois
##ping
##inals
##ester
##eness
##rets
##adow
1900
existed
prer
##ears
##oven
firing
mans
web
flat
##wealth
retreat
armor
cris
gerard
1958
protests
tries
detail
detailed
commonwealth
heaven
mole
ceratops
ruler
approached
inhabit
institutions
arrangement
emerged
encouraged
admiral
compounds
ryan
reunion
portrait
inspiration
anniversary
fern
kit
las
na
pip
sight
##ooth
##itals
##inger
##rell
##elet
##iling
stem
asc
bear
mega
cob
##ensis
flo
songwrit
pointed
counties
1949
1977
designation
implement
corp
triple
videos
internal
attempting
treated
crossed
equal
suffering
regularly
admitted
sequel
norman
institution
choir
hoped
giant
climate
apparent
lbw
roger
unusual
eggs
renew
freedom
lennon
07
63
kid
lam
ped
pion
sulf
sessions
tales
##yon
##ook
##pret
##arf
anek
##using
##rif
##unt
##antly
##uda
herge
relative
desert
serial
aged
goffman
fled
indeed
assumed
acknow
airline
transition
musicians
meteor
##roll
owner
medium
13th
imposs
verse
harv
visible
##inking
approved
convoy
possession
##aurus
footage
strongly
statistics
##ombat
rhodes
identity
improve
kilmer
duties
hundreds
janeiro
wearing
reconstruction
crusad
saprang
caval
protagonist
initiative
resources
franchise
prohib
06
93
bce
cater
craft
hi
kin
pure
wings
##rates
##tw
##wen
##pe
ina
##icts
##uses
heat
shif
shakes
##odies
proport
dean
##ables
##eare
reconna
ages
partly
meets
preced
intercept
accused
embar
winner
starling
armour
1983
medal
collabor
trials
easily
1920
lawton
debate
cycle
##whel
##encies
looked
indicated
practices
camera
richardson
##ometric
hunting
jean
completion
concerned
pleasure
attracted
owen
watershed
cabin
specimen
terminus
doubt
fixed
adjacent
dramatic
concerts
jesus
##bledon
georgia
circumst
wimbledon
behaviour
prerog
reconnaissance
ax
boss
hat
jag
ky
mant
pink
rated
ward
##how
##zen
##organ
##imate
shots
##umin
prol
##allow
##ishing
spaces
##oking
aggress
pool
parks
recordings
understand
ministry
artific
162
metall
##ahl
persp
destruction
patron
moral
effectively
influences
falling
verte
settled
composer
queens
reduce
cambridge
traveled
exhaust
emerg
publishing
purchase
rhythm
diamond
somalia
doctor
sculpture
congreg
incorporated
korean
remnants
download
05
58
ak
ace
bert
cant
hob
kombat
nom
sb
##cia
##bie
##vis
##yard
##hu
##itated
##emet
aniston
##opl
##ifer
recalled
grace
afterwards
displ
impl
overwhel
parish
accomm
somewh
mayor
##aware
driving
obtained
operating
lob
advis
attacking
storms
aviation
1910
restoration
eleven
keamy
solar
##attered
victims
stands
1909
merch
selection
meetings
holiday
pitcher
funds
measures
##going
garcia
painted
seemed
absol
essential
recovered
controversial
architecture
behavior
bridges
puppet
pupils
context
accommod
somewhat
08
cave
cake
ira
matt
oak
pier
rag
tone
##oom
##hm
##arth
##icate
##real
##thosaurus
##idae
islam
fraser
unp
spend
##achus
abd
manus
flower
interaction
param
consc
preserved
poland
generals
divor
origins
##annah
directors
johnston
barr
germans
##eera
1935
1931
1912
convin
lowest
representing
destroyer
praise
circulation
researchers
rebels
hosted
escort
normally
panel
linked
arabic
opposite
throwing
cancer
distinguished
passengers
elizabeth
plunketts
corythosaurus
goddess
crisis
shakesp
68
bone
bapt
covers
dc
fate
fia
fold
gib
icon
pad
sab
tong
tailed
ust
wine
##cement
##uz
##rus
##right
thro
##atures
##olay
##ira
##otic
answ
sees
enth
recur
clock
income
disaster
carp
interpret
forming
##ribed
monuments
defences
defended
willing
helmet
expensive
returns
##tendo
1932
waterfall
trading
propag
crosses
palmy
covering
programme
equipped
limit
audio
difficulties
satur
stayed
judge
responsibility
princess
nintendo
junior
carrying
mobile
elsewhere
vessel
sisters
stanley
marlborough
infrast
archbishop
hockey
inaug
prerogative
artificial
shakespeare
az
bang
cull
cemet
eric
hay
ken
lith
voted
wag
##burn
##ugh
##rating
##ware
##put
##xts
##onica
integr
##icide
##reh
##ithic
alter
comments
##ishment
spur
fei
agree
otherwise
canter
##amps
ell
elabor
supporters
stead
occasions
confeder
geoff
arrested
glad
1911
universal
internet
switch
promote
villages
1921
1929
patri
patrick
lawrence
##scop
defeating
horiz
burning
tribut
catech
ambass
bombard
thousand
legislation
pushed
environmental
beautiful
survivors
elder
citizens
netherlands
diplom
fernand
impossible
manuscript
bore
citing
dens
gates
holl
nad
pin
pig
rib
tight
tale
##rich
theor
##eries
##arm
##ician
##acle
##etime
##uting
chron
##ifies
##oceratops
##oster
abund
amino
margin
charity
acclaim
underst
understanding
retained
surpr
161
crush
1962
mediter
1959
raj
raff
raise
1938
streak
periods
##quez
equivalent
involving
voiced
atlanta
tribute
closer
observatory
objects
intensified
products
pitman
accompany
disappo
garden
##heim
doctr
sleep
vessels
cryst
batsman
##iques
cambodia
preferred
unsuccessful
resistance
criminal
stefani
cemetery
67
86
cbs
dor
gent
gust
hou
nur
nurs
rect
sic
u2
va
wet
##uv
##fare
##rator
##erry
stable
##iform
##aboration
notably
twin
committed
appropri
formal
reveals
subspec
phr
slide
helic
collaps
collaboration
raf
furt
myst
latex
convection
temples
1920s
causes
criticised
needs
fallen
doesn
narrative
antiqu
housing
absence
caes
visitors
moments
aerith
saved
##rupted
sharp
laboratory
apparently
spiritual
overseas
proposal
deployed
palestine
democratic
biographer
dialogue
phillies
canterbury
catechism
mediterranean
subspecies
09
dele
hok
hull
kann
sale
saves
##coming
##boy
##math
##dy
##rabb
##vn
##vada
##vements
##graf
##inje
toll
##illy
##lete
forb
##igation
ready
shipping
deem
degr
##apers
##illed
##ocy
trick
recon
manga
intense
usd
canyon
formally
warning
followers
musician
loan
expand
modified
considers
extension
restrict
skull
refers
markgraf
posted
suggesting
represents
jackrabb
representative
stationed
inher
republican
platoon
corner
productions
krak
colorado
journalist
imagine
drums
dawn
nickn
trouble
grammy
##otype
##onomy
submarine
exposure
mamm
bureau
anekant
raffles
helicop
furtado
bou
baker
cec
lose
mud
nic
nhl
tam
yo
##cements
##lec
##vati
##esco
andre
##ili
##lets
##etts
forg
##chang
sholay
##agas
seas
##abled
##udes
##iped
aftermath
resign
actual
remember
thereaf
engines
cape
166
obst
disturb
depending
barker
annually
persu
reprodu
extent
140
valky
communications
sugar
ordin
grounds
networks
predators
innov
informed
dominican
materials
poorly
happened
ranges
displays
aware
ensure
recovery
sacred
purposes
muscaria
vehicle
orbit
reservoir
ille
cotton
saturday
deleg
thereafter
jenn
kim
liv
lists
mail
pull
rates
vel
##life
##oes
##gam
##hang
##oma
##owiec
##osl
shear
##ager
##apy
##una
plane
##ishn
##acked
##iang
boom
scar
ago
coins
##ricted
blow
teen
consult
throne
writings
driven
starlings
obl
15th
1940s
models
useful
maggie
blacks
childhood
entitled
easy
supern
radiation
richmond
situated
representatives
influential
factors
fifa
readers
salv
strip
honour
talking
mexican
camer
watching
injuries
layer
withdrew
israeli
publisher
opportunities
excavation
advertising
wisni
nichol
simultaneously
infrastructure
wisniowiec
02
78
900
benn
bald
cass
jar
pagan
ri
tag
wel
##mat
##mont
##aver
##eit
##tav
##va
##hol
##inian
##ilst
##emat
anime
analy
shark
ark
spoke
enfor
##ogy
##teenth
ammun
roth
commem
partially
brick
pret
interests
norway
deck
parvati
##ugosl
movements
driver
severely
generated
101
123
originated
installed
operate
155
113
passion
harm
deliver
personality
victories
moore
1928
historically
funer
massachus
burned
excess
turb
fundament
sequences
##itzer
properties
athletics
robin
portugal
adventures
instruments
struggle
bulls
wrestling
jacob
plateau
substantial
circumstances
anekantavada
ammunition
massachusetts
84
92
cov
esh
fert
gary
gwen
hamp
lud
osc
rav
rising
sans
tast
tide
vast
yugosl
##oh
##western
##kes
##onic
##aled
##ilation
##lying
whilst
##owa
fred
frig
frust
shells
##aku
price
spores
recip
twins
contest
intr
relie
agents
carved
weigh
poison
remark
sole
surg
miller
metropol
##ucing
##yll
anyone
raaf
listing
1927
amongst
hurricanes
everyone
casting
survive
looks
mixture
predomin
departure
khand
biggest
wilson
garrison
establishing
thinking
loud
eaton
swedish
affairs
acknowled
emergency
ustase
kannada
celt
caves
gill
jr
kam
mack
mental
pag
tiss
wives
zoo
##bal
##uge
##greg
##piece
##inery
##ares
##oux
##state
wasn
forty
bearing
##agement
herald
residence
resigned
marry
marquez
playoff
cars
overl
##kend
##weight
blues
paraly
consp
howe
divers
armored
instance
ports
178
downtown
loose
westward
offices
##onto
midge
classification
1933
restored
harsh
trek
trend
formerly
compete
##encing
sung
techniques
fifteen
burial
veronica
select
creative
documents
interesting
occupation
boxing
simpson
pictures
experiences
neighbor
reinforcements
tanks
premiered
delayed
gilbert
terrorist
corporation
stewart
phoenix
##friend
yanke
wicca
khandoba
cow
code
dak
denn
josh
mall
mood
mys
mcl
rig
ride
##uable
##mate
##lie
##gro
##ori
##isters
##the
##roit
wasp
forcing
reh
##ulating
prove
succ
##apse
plus
trained
complic
resolution
prep
attrib
format
peach
##ologies
drain
surge
supplement
founder
smooth
165
##yline
continental
designs
##ontin
weekend
1957
detroit
harmon
universe
skills
differences
frelim
federation
21st
sounds
toronto
scientists
audiences
wright
recognised
costs
measured
achieve
inhg
clearly
martial
preparation
weapon
illustrated
application
minimum
jurchen
imprison
moderate
mulder
retirement
hudson
mozambique
proportion
wisniowiecki
frelimo
bones
foss
fasc
kansas
mbar
ns
pf
pec
sant
tack
ww
wonder
zomb
##cer
##bn
##mus
##rat
##ses
##tles
##vant
thor
##onia
##rees
##oli
##olen
enh
clin
scully
commons
usage
coff
jobs
engage
symp
defending
scheme
starred
crops
battlec
artwork
163
crake
depicts
##elsen
barry
##atherine
variation
magdal
characterized
christoph
kevin
temporary
promised
presentation
cleared
expert
elections
sufficient
condem
satisf
archaeologist
err
huge
objective
ranging
badly
russia
giants
grown
revolutionary
victorian
draf
fatal
excavations
mechanical
##criptions
ethnic
cubs
tactics
philosophy
coleman
cinema
voyage
remarked
convinced
battlecru
03
aster
bun
bind
cel
dave
gamb
hub
kong
lia
nu
pc
ruth
vote
##night
##rants
##ien
##yce
##inus
##edy
##inge
##asm
##icity
##icia
render
##char
isot
##emies
chanc
##aints
##odr
##opp
##unction
nebr
##akum
##ategy
unre
spar
boot
relation
fee
feathers
partner
cargo
interpre
decides
texts
warren
regiments
revival
strategy
install
crab
describe
persian
designer
publications
corb
arriving
restricted
inscription
eleph
valuable
explo
communication
1926
opponent
cyt
claiming
peters
hamlet
factory
davis
##efa
striking
ranking
closest
diagn
quarterback
duty
displayed
mrs
frequent
intellect
magnetic
magnitude
aspect
graphics
boundary
determine
schedule
protestant
alleged
neutral
feeding
dwarf
impressed
false
drug
benefit
residential
predecessor
styles
inhabitants
cavalry
ambassador
hokies
oscar
01
dies
dual
erected
hans
jet
mes
mitch
pic
sas
tut
tenth
##bing
##ao
##gov
##icit
##eled
##ecraft
##acles
aside
##iders
isbn
chan
chagas
uniform
##ellar
clust
abby
allen
amph
##oko
roots
##ignment
brill
offs
coin
outbreak
centers
decay
attained
charged
##graph
revol
releases
belg
armament
millenn
##ertain
deput
##aham
commandment
considering
arrive
refuge
difference
possess
explains
bands
highways
argues
1905
turks
machines
satell
ruling
cruise
dominant
malley
strengthened
anthem
batteries
newspapers
bulk
degrees
waiting
liberal
leslie
mathews
definition
jonathan
premiere
adaptation
prompted
exclusively
updated
kelly
settlements
pioneer
perspective
wagner
deemed
valkyria
paralymp
bom
banned
fib
nut
nash
uefa
##iac
##hem
##wer
##ko
##jan
infer
##anth
##itively
##ilty
##urer
##roph
stu
##olithic
rend
shield
comics
prosp
suicide
deity
##aki
export
exists
##arte
herze
clark
scattered
amid
amaz
resumed
carn
impression
brain
coinc
upset
earn
charm
assess
assisted
northward
northeastern
artistic
obv
metre
##ucks
landings
##rows
expect
exposed
magadh
inscriptions
deliber
handled
##box
furthermore
tourist
profile
seek
jackets
heroes
structural
fifty
talent
crews
testing
injured
amounts
cheval
celebrated
investigation
chronicles
globe
distinctive
defenders
kurt
disappeared
brooks
##borne
##burgh
bertin
iraq
nurse
commemor
celtic
nebraska
##govina
magadheera
cod
cous
cash
dd
dict
eg
haz
lies
laugh
pyr
soph
wander
zinc
##mouth
##eb
##rad
##wa
##atically
##icial
##reet
##omtav
##urally
##adier
stores
forth
##olia
asomtav
anch
chain
sure
pryce
spac
enters
abol
##okovic
disband
carre
carmel
sheff
coordin
pref
prefect
paran
peaking
emmy
quant
southeastern
guilty
##endar
##inton
117
runners
ideal
triang
demands
harold
swim
organisation
approval
tempor
basement
1925
1924
referring
sunk
tooth
trophy
turrets
circle
circuit
1890
magazines
madrid
memor
rebell
keys
murray
violent
uncertain
matth
prevented
djokovic
tournaments
demonstrated
delivery
pursue
executed
alfred
assassination
nielsen
substitute
meteorological
houston
yankees
herzegovina
asomtavruli
bible
dat
fulf
gets
jen
jur
lor
por
ump
wik
##noon
##rh
##vised
##gars
##went
##inations
##esi
tox
##adi
sting
stood
##iri
##ivated
altered
congo
chen
chest
##essee
expression
##sex
##arya
scand
gran
afternoon
feels
disagre
evolution
brack
weir
canon
##osex
noble
genetic
liked
buy
acre
acute
phen
string
##atched
##ieties
conclusion
170
runway
edges
sixteen
helium
commandos
conflic
1934
sket
soci
valve
initiated
anglo
philip
berlin
innoc
madison
territorial
jews
hostile
indicating
employees
melody
ninet
subjects
tennessee
adopt
translation
succeed
suspended
hawaii
recommend
advertis
pounds
typh
cosm
warrior
carpent
eshmun
bib
dud
gap
gosp
gift
kon
lis
lumber
mit
ndh
omar
oreg
sult
tip
yield
##bel
##nie
##rom
##gers
##wick
##kon
##inth
##nda
toured
##urst
ontar
stav
strict
##ulu
##osing
##estyle
##agen
enzy
##ieth
##iney
components
abc
scout
percept
mariana
evans
upr
##active
dece
consol
underne
liqu
##enden
receives
125
cress
114
signs
reducing
chrom
##isms
harbour
swiss
valid
sentiment
realized
1000
requested
##shore
ordering
seeking
walking
##itarian
romanian
programming
presidential
1908
biological
reader
putting
colleagues
venues
respective
potentially
theatrical
certainly
catal
renov
birthday
benj
keeping
conservative
bidd
architectural
sorra
measurements
withdrawal
kirk
eliminated
culmin
orchestra
rebuilt
paramount
pretty
sympath
chevaliers
sheffield
oregon
ontario
underneath
dust
hast
kw
liz
lakes
linc
mg
nam
ost
riding
vig
veter
##father
##equ
##low
##sis
##aski
##star
##rose
stere
asian
asks
##vereign
##odore
##ardine
leigh
tracy
##rae
resol
rook
uss
aggreg
##pled
brut
##enses
outl
earning
parody
##orship
sovereign
presby
operates
barbar
##azer
provinc
peoples
anne
dams
trium
christine
harrison
visiting
organised
stream
personally
bases
kills
1923
sentences
##minster
shoulder
nettles
rhys
wrapped
animation
rounds
wider
ernest
parliamentary
sympt
semif
observation
fishing
coaching
autumn
removal
chicks
cougars
favorable
pulaski
rhyme
gardner
hawaiian
neighb
sculptures
comparison
synthes
molecules
vertical
determin
partnership
queensland
propaganda
elaborate
collapsed
fundamental
surgery
dakota
satellite
spacecraft
benjamin
lincol
presbyter
dish
jason
lig
lanes
pse
pace
rick
sib
sony
vand
##cribed
##bound
##rent
##ij
##oly
##hy
##krit
##pan
##atural
##atropical
##anita
toler
##oust
##ami
##acc
stim
##etown
asking
whit
conj
atom
chase
shorter
suitable
##apore
platin
trig
contribution
goat
overlo
##ensions
##kshire
parade
remove
mines
acids
guid
guerr
singapore
starring
##ernon
crest
signal
completing
advancing
collapse
14th
believing
easter
youngest
prix
profit
representation
africaine
electron
woodhouse
voices
##ships
inhab
synag
wildlife
bodyline
dispute
questions
drove
logic
boundaries
documented
translated
compliment
borough
extratropical
ingres
korea
sisler
columns
molecular
negotiations
abbey
accomplish
campbell
##imetres
islamic
enthus
doctrine
phrase
sanskrit
pagod
##music
christopher
brilliant
sorraia
lincoln
pseud
platinum
aa
hidden
jardine
nl
naming
pp
pel
pages
racing
sect
sample
tub
vib
veer
xii
##fire
##nels
##dles
##dney
##vi
##gets
##wan
##zi
tod
topped
##acru
##olis
bears
##otions
##unc
neil
neves
##akers
spending
notice
inclusion
grave
amanita
mars
usher
megal
canning
joining
maur
produces
revised
preserv
airlines
mainland
couldn
advoc
myster
universities
controller
explain
exploration
##scape
traded
briggs
radical
contrad
walker
friendly
connect
factor
illness
devotion
1907
industries
veracru
facility
volumes
snake
reduction
objectives
discussion
daughters
punt
powered
ultimate
##yclic
reflected
shrine
telugu
reforms
766th
honorary
steps
louisiana
agriculture
emphasis
beauty
encountered
rotation
segment
submitted
gravity
battleships
strategic
suddenly
unlik
corpus
cullen
gentle
degrom
bennett
prepare
belgium
millennium
temporarily
cresswell
biddenden
veracruz
bag
dil
dad
ders
fitted
hut
jury
kiss
lind
mason
nel
nag
nave
ok
rud
sings
sailed
tony
telling
vs
zanz
##uar
##uki
##rene
##tis
##tle
##yers
threw
##inction
##atum
toy
stap
stern
reass
##oto
cha
chord
proph
depress
arvn
##ishops
encl
enemies
clo
clinton
abilities
##rawn
apprec
finale
upgraded
flies
decisions
##aceae
blu
underwent
retrie
sax
genera
105
armies
meters
likewise
##aho
advice
westminster
juven
bread
confront
laud
demon
switzer
eventual
1922
charted
lesser
vii
ballad
excell
devast
facil
memories
commenting
closure
approaches
panzer
choose
nominations
assembled
senator
junction
percentage
aerodr
administrative
##ycake
pulled
shares
struggled
prisoners
conversation
ceremon
argentine
##point
beliefs
wishes
consequently
pregnancy
pattycake
unnamed
demolished
sioux
cabinet
##howitz
chrono
caesar
illegal
neighborhood
##osexual
conflicts
typhoon
dudley
consolid
provincial
synagogue
nevesinje
dershowitz
zanzib
dal
dahl
fing
fusion
gael
hence
ian
jaw
lion
ment
mast
pill
rocks
xe
yor
##awn
##nc
##dale
##ras
##ygen
##power
##za
##esters
##ila
##acre
ongoing
stellar
reper
reject
beings
beats
##imon
isle
##otte
##ulk
##ulous
shim
shift
suit
##riages
##arded
preston
recall
herd
allies
alliance
feud
carries
offering
overt
flesh
indones
##aceous
pohl
accum
themed
gene
buff
acyclic
retal
drivers
strange
epic
##ternal
127
mainstream
developers
115
steep
rede
idol
idaho
##asha
commands
arrest
reviewed
anticip
keith
##linger
refere
controls
speaker
significance
connecting
merely
philipp
hoover
achievement
mccart
1861
immort
360
credit
punishment
temperatures
pilots
tonina
chronicle
charlotte
danger
columbus
reactions
permission
ibis
hypoth
sweden
130th
cooperation
execution
recreation
##iciently
appointment
leukemia
subsid
tigers
clothes
aggressive
fernandez
accompanying
metropolitan
wwf
wanderers
unlikely
switzerland
83
aub
bour
cock
dri
dense
esp
gay
hab
kos
sq
tet
tape
yout
##lus
##rous
##sky
##tic
##wal
##kets
##zhou
##esth
##aret
##anag
##itic
##isle
##aman
onwards
##rog
stabil
##terior
##ige
beth
##imeter
isesi
##emen
conform
heir
shirt
procl
##aks
##berry
printed
trails
trapped
spots
##ello
compens
compreh
manip
resid
##oken
timber
eve
eval
offshore
outf
earnest
parach
joh
knights
retail
dover
phone
backed
belgian
168
concur
distrib
174
##aza
everton
##obi
restore
christians
harbor
delaware
internation
farming
lessing
soldier
helping
travelled
exclud
tenure
animated
madero
duo
machinery
draws
measuring
350
teachers
symph
negl
investment
preparing
traveling
airports
ranks
hunt
ferry
taxonomy
pairs
aerial
lifetime
policies
gardens
precip
sporting
rushing
elevation
duration
conversion
patterns
leonard
nazi
alberta
depicting
census
exactly
armoured
nadal
arkansas
taste
deputy
stuart
pyram
phenomen
carpenter
gospel
sultan
uprising
gaelic
mccartney
youtube
cards
garn
kate
kau
lect
mold
nit
pod
pak
tang
##da
##ded
##ʻi
##alf
##icians
##ecution
##street
##uration
stor
##etics
##olence
rever
reop
##owed
chop
##andra
##essors
seattle
##rik
unst
trunk
##ova
##order
##usted
adela
manor
##athered
allosaurus
##raid
remin
##phone
sydney
revenue
positively
backing
wells
terrain
maintaining
operas
operational
118
##emble
##ashi
commanders
characteristic
raising
extinct
trio
values
handed
heavier
requires
morph
functions
survival
strongest
grandfather
irreg
donated
balls
1902
declar
bowling
penet
1895
sanct
madonna
pitching
derff
closing
cruc
indicates
oxygen
watson
twentieth
matters
dubbed
failing
utah
bulgar
searching
thirteen
cancelled
shrub
wait
candidates
alleg
farmers
concentrated
neutr
pursuit
encounter
transmission
interactions
bronze
hydrogen
joyful
aimed
vegetation
decorated
alphab
accurate
crusaders
embarked
divorce
recurring
manuscripts
tissue
succession
stavanger
adelaide
irregular
04
aqu
fu
gig
gaining
hpa
hnc
ic
lyn
mong
mask
oz
sank
sitting
tort
wore
waves
##far
##dream
##oard
##war
##20
##oral
inning
##asa
touring
toky
##eted
whate
beating
alt
alive
fru
fried
shadow
comfort
seats
##ighters
unex
leeds
##iph
compilation
abroad
graves
margar
serbs
evolved
poets
attitude
##ilda
##ilding
acceler
##alsa
files
engagement
mint
monster
monkey
acoust
quiet
daydream
retro
movies
guar
fourteen
airfield
surprise
singers
106
numbered
terr
descript
##oyd
167
169
concession
downstream
successive
confession
detected
reaches
christi
harry
increases
halo
solely
solution
mothers
tours
telegraph
morgan
fewer
membrane
stronger
goods
##issioned
donald
22nd
horror
occurring
broadway
civilians
salmon
copy
lacking
archaeologists
compositions
balance
##thodon
hunter
angelou
withdrawn
jeremy
consistent
krist
constitu
craf
seriously
coldrum
flowers
ashore
borrow
hawaiʻi
qualified
##blazer
fragment
grammar
volunteers
wickets
ownership
hungarian
witchcraft
wyoming
unclear
dinosaurs
eccl
dynamic
##schild
wealthy
photographs
vertex
myself
cousin
triumph
xiii
derfflinger
whatever
bac
cott
dick
hatch
jos
kody
lem
m3
pm
pistol
ss
votes
##cop
##bow
##uters
##mith
##mates
##aud
##lock
##ract
##iary
##erce
##orph
##elg
##sters
stakes
forever
##olin
beau
check
##ulates
shock
deer
##aping
##unes
arena
tran
trond
trains
##ourse
##iaz
butter
abuse
allmusic
commerce
##ormal
imb
evident
##ensively
##ricts
acted
maya
mini
endors
revived
guild
guides
presents
caps
simpl
transcription
wellington
starter
##tenance
maintenance
obtain
metro
depiction
##anya
continuous
governments
redes
##ashed
protesters
gender
geography
humor
capturing
victim
##eltown
cyrus
wheel
romania
coverage
electrical
##ficial
1903
honours
hook
holoc
identify
fault
cruisers
1889
cutting
physics
linear
hospitals
arabs
participate
##zzi
targets
roller
examination
##suing
##iscus
arrangements
marketing
bradstreet
habitats
bedell
sora
reinforced
pounder
opinions
permitted
mathemat
microscop
virtually
loved
jurchens
puzzle
puzzles
pregnant
relegated
pirates
mantell
patriarch
appropriate
mystery
rothschild
hampshire
interpreted
obvious
stingray
symptoms
pyramid
dot
fi
ioc
jess
ker
lumin
mate
mature
pas
patch
puma
roc
rains
rivals
sag
sick
sized
wu
##ci
##fast
##aic
##inces
##ede
##enous
##itter
##stit
##urance
stall
##lyn
##ema
conce
heb
##osity
seized
unw
pron
prest
tristan
worn
sciences
manual
manuel
##atha
##rah
amyl
perceived
desper
sheep
interc
interstate
parent
parad
highland
consent
buc
subur
guine
smoke
recept
##anka
infection
116
barrier
varied
helps
collections
raik
humph
avo
insurg
swamp
convey
explicit
bills
authorized
defender
statements
230
fortune
hamper
labyr
announcement
audition
tommy
departed
denomin
flooded
christianity
breaks
autobi
housed
1849
tennis
opposing
bombing
rays
buddh
kickoff
savage
blocked
promotional
questioned
touchdowns
etty
kilometers
legislature
exhibition
vicinity
palestinian
ohio
bruce
vulcan
registered
sending
resemble
exclusive
experimental
tasked
antonio
immigration
indigenous
mlb
renewed
rhodesian
displaced
understood
crystal
restrictions
drainage
##konen
clothing
zanzibar
margaret
holocaust
labyrinth
ds
faster
gaming
hong
hollow
hannah
ion
iowa
jav
kyle
kids
mild
nice
nca
pam
vin
vital
wol
yd
yam
zero
zagre
##cover
##bro
##uations
##ran
##sk
##eration
##itary
##itely
tob
##ilis
##thren
##amer
waste
ster
stick
##irts
ascend
beeton
chand
##oping
##apur
orange
plag
trough
spo
component
cliff
clocks
fires
scorer
users
brun
decomm
##wegian
warn
miners
ministers
phosph
preserve
drinking
locally
108
slayer
creutz
directing
151
distances
districts
complement
edit
edited
persist
persons
brethren
confusion
coron
tourism
##brush
replied
treas
funny
femin
battlefield
flew
reportedly
vegas
1897
mcn
birming
duet
dioc
##guard
administer
graphic
reflecting
essay
rescued
comprom
comprised
fastest
familiar
haitian
pushing
neighbour
skinner
requirements
rubber
extending
minimal
hellblazer
dependent
binh
volunteer
staley
gregory
loyal
subtropical
banksia
enlar
loverboy
undertaken
bosn
indigo
absorbed
tickets
palmyrene
disappoint
disturbance
funeral
dennis
asteroid
isotopes
intellectual
rebellion
liquid
barbarian
tokyo
guarant
ecclestone
trondheim
raikkonen
ncaa
birmingham
bio
dh
dancing
ety
ecl
fed
ful
hitting
lon
lod
mond
orib
pok
rice
raw
tab
vik
##bu
##uating
##nall
##wall
##zona
##inaw
##inness
##enburg
##ario
ing
##ito
##acelet
##rooms
fore
reag
reagan
alde
bypass
anat
atop
hearing
pled
##abh
enorm
cler
aboard
grain
resur
relatives
marie
usual
serb
goth
meg
norwegian
assum
assert
##veland
genu
pend
quiney
syad
speculation
singh
obsc
111
variations
provision
extensively
glam
convict
explore
lights
marking
curved
priests
cleveland
freakum
behalf
radar
angle
navar
261
220
arguing
device
1906
1901
praising
tombs
chapters
squadrons
derby
businesses
escaped
minority
preparations
liner
concepts
crickets
consistently
ensemble
beaten
essentially
telesc
lucas
manufacturing
1819
tawn
scholarship
arizona
batsmen
software
cambodian
kennedy
nasa
hughes
cobra
exhausted
hobbs
barracks
baptist
tributaries
corbet
matthew
conjunction
complimented
tubes
parachute
zagreb
etym
ay
bm
bold
fits
gut
hug
kle
mkh
nig
naked
pear
saving
torn
tested
wake
yang
##master
##away
##din
##lical
##time
##gans
##htw
##parts
##zes
tools
##entine
##aduct
stip
reward
reines
bend
beam
##imer
##che
##chan
isles
atlet
##agu
deals
neolithic
oral
plains
exceed
unrest
leices
pray
trench
spore
spawn
afford
butt
graham
manif
allocated
amend
marge
commenced
##ruption
apply
partington
carriage
mend
##enson
intermedi
centimetres
##kef
knight
assy
thrill
sox
quad
quoted
colours
doyle
brood
phyl
airborne
portions
slopes
154
johnny
barre
load
advised
heading
brenda
justin
archer
courses
tracked
legit
tempo
storylines
##boat
similarities
militia
##bracelet
traditions
posts
politicians
competitive
argument
viaduct
connections
travels
affil
mixing
homosexual
predict
predicted
lacked
urania
transported
commissioner
1880
approaching
venue
1860
motif
murd
painter
threats
1878
egyptians
graduate
conception
borders
dedication
reflect
beds
sexuality
europa
repairs
concerning
households
challenging
wicket
sponsored
licens
kenneth
napole
glee
kyra
absolute
##arthy
steadily
diplomatic
rectang
veloc
coffee
liao
advertisements
pagoda
retrieved
acoustic
rockef
humphrey
mkhed
##htwald
atletico
bah
bishops
dying
eating
fus
hod
kal
lt
lan
mv
pand
ric
ria
vist
##fu
##fish
##mad
##aj
##pani
thai
##onian
##anville
##adic
##lev
stability
##olics
##ivation
##ima
item
atp
hein
proceeded
##unning
##ifeng
##illas
placing
##ocation
execut
unless
leaf
##udo
spell
envelop
herb
adri
marg
disrupt
1800
outd
flot
canals
knock
knocked
warned
warfare
##issions
emotions
retain
dressed
102
studying
##itsu
slave
milk
##ernoot
cres
distant
171
continu
loop
preval
austrian
131
magical
roadway
commanding
corrid
glanville
verses
antagon
insects
visits
villaret
superman
experts
angry
summar
240
lyrical
copper
processing
brah
1857
funded
talks
improvement
floods
educational
expressway
screens
happen
anthrop
participants
hoping
franklin
constantly
russell
lloyd
celebrate
investigations
ignored
kaifeng
##anza
tunnels
grasses
ecu
qualifying
articles
concentration
fragments
flagship
legends
troubles
applications
bernard
mythology
vulner
calculated
survivor
altarpiece
conventional
alfa
summary
recreational
stretch
stretched
deterior
venture
consumption
lancaster
cantrell
inaugural
density
cecil
fertil
conspir
thorough
condemned
elephant
amphib
charmbracelet
vandernoot
todd
contradict
auburn
declaration
borrowed
hebrew
navarro
tawny
mkhedruli
billy
cps
dy
eug
gains
gathered
kub
lying
mh
mott
nf
pent
rp
sf
sina
ted
tent
ties
tai
um
uy
vint
wno
##fly
##iast
##ws
##jection
##zed
##aters
##anks
##itudes
##isations
##asters
##omple
##acon
styl
rejo
beer
chi
##osy
shaw
shallow
##agers
neph
arn
##ipel
clergy
button
manage
##irect
##place
bristol
finest
##ibilities
flows
indolence
centered
decide
blind
parrot
##rible
noise
remind
##grad
undergo
elgin
buoys
monit
syl
larry
dozen
surpass
transits
129
teammate
##erto
baron
variable
steg
editions
loch
##uedoc
shipments
austro
austria
passages
135
reporter
##inae
##obile
tracking
##aiman
progressed
explaining
promise
moist
##iko
replacing
planes
planets
angles
eighteen
wanting
humanitarian
catholics
devoted
destroying
1904
hym
languedoc
salary
berhtwald
mcel
grows
ulster
urged
improvements
athlete
mccarthy
employment
seemingly
ukrain
substance
boyfriend
1848
gielg
publishers
imagery
scratch
occasional
intersects
jimmy
shaft
bhair
truly
permanently
spotted
jumping
ganges
##bourne
belonging
vertices
besides
surrendered
ronald
witnesses
sailors
tasks
dimension
repeatedly
qedarites
exercise
echo
lambe
ornith
relegation
##oplasm
bombardment
rajam
jackrabbit
supernatural
bombs
memorable
innocent
nelson
yorkshire
leicester
rockefeller
sinai
gielgud
bub
bry
cattle
dent
dors
diaz
fighter
gack
honey
nh
nus
ramp
rape
sull
sacked
##cs
##case
##ux
##found
##face
##die
##dict
##lane
##taceous
##gom
##hist
##erver
##eria
intend
##isons
##asco
##reated
##omura
##leg
stro
##ete
ford
forec
##olph
##ivan
##usa
shall
nevada
##illes
##akim
unh
##ante
leban
##season
computers
##ounced
adequ
2000s
incurs
abn
scler
scots
gren
##athy
perp
relax
disgu
coat
indoor
elli
synd
colors
polar
suppress
opined
invent
mills
metric
cretaceous
crim
landscape
173
sixty
annals
advances
commandments
publicly
humpty
glor
glac
turnp
destination
templ
moth
lawyer
brigadier
everyday
petition
friendship
statue
involves
limits
woodland
travelling
devin
guitarist
frontier
hygr
turkey
sufficiently
campaigns
circular
narrator
faulk
estimates
acceptable
venge
dealing
observers
##thodox
responses
violation
##boro
screened
montreal
links
senate
hunters
journalists
bradman
ceased
kicked
sweep
perfectly
sacrif
tonnes
alternate
##rosaur
julian
offerings
weakening
sensitive
restaurants
rituals
synthesis
reserves
fungi
mahesh
gabri
distinguish
##rigue
instrumentation
blend
evacuated
astronomers
immigrants
gathering
songwriter
prohibited
shifted
axis
merchant
accommodate
surprised
helicopter
ordinary
robinson
yugoslavia
remarkable
predominantly
complicated
biblical
siblings
maurice
mysterious
shimomura
kosaku
internationally
precipitation
garnered
avoided
decommissioned
enormous
intermediate
phylogen
rectangular
gacko
faulkner
a4
aided
cg
cable
cats
dre
dign
fo
fier
hav
hide
ko
kan
kitch
mentions
nan
riv
tz
wisc
xook
xbox
##cr
##bach
##lan
##haw
##pected
##oni
##areness
##anelli
##itious
##ouli
##omyc
##urers
##etical
beak
##otal
sean
seam
unt
##anti
trinity
##achment
boil
scores
##ques
agar
finn
finance
coaster
flav
indirect
secular
bloom
##ports
knee
accus
elig
buck
quinn
##onsin
colomb
releasing
poles
populated
divines
crop
portable
172
varies
governed
medic
imposed
confron
confidence
myel
demanded
halted
swing
caliber
realised
cameo
walks
pete
##rett
limestone
woods
troop
casem
salt
naturally
memoir
silk
commentary
commentators
##ommun
1850
1856
1854
commercially
malays
symmet
##ettes
montfort
interviews
cyclones
##owski
ambush
robot
cadets
foxes
learns
raymond
awareness
focusing
portrayal
screenplay
crowds
rushed
##rosaurus
reformed
dreams
liberty
eleventh
##khuri
tactical
dwight
options
inducted
extends
highlighted
challenges
assassin
instrumental
therapy
conquest
mansion
preceding
collaborated
interpretation
gladstone
gusts
nursery
reservoirs
nicholas
relieved
pfaster
deliberately
disbanded
wikiped
perception
semifinals
pakistan
imbudo
oribi
napoleon
uygh
nuskhuri
sullivan
hygrometric
wisconsin
bent
bould
cakes
dian
dirt
fitz
gur
ket
kab
katherine
mere
pall
saints
tat
vishn
zones
µm
##bi
##mation
##tains
##iy
##iors
##ycl
##ggy
##here
##hous
##ław
thread
thesis
##oric
##isph
##icus
##rection
##leans
forget
##irth
ask
revel
alco
isn
conso
conceived
orland
orleans
##aba
external
exterior
leagues
spor
spear
spokes
enabled
##geon
##ordination
incomple
intact
relay
root
user
appeals
playable
imar
decoration
elite
monaster
reversed
winners
speculated
guards
guinness
strapping
##sson
founding
sms
opens
109
diverse
1200
terry
batting
descent
invaded
invitation
developments
directions
##ucky
thoughts
diff
vargas
provisions
damages
helm
##ashire
breast
extant
arrives
archipel
aval
blackie
harris
hurt
skill
organic
villain
realistic
markets
tourists
moro
associate
observer
navigation
petro
pressed
competed
positioned
electro
connects
affect
##beat
facade
declaring
rhode
wallace
knows
1898
1894
berg
bergen
recognize
estimate
1851
intervention
urn
drawings
1881
1880s
mosque
staying
dealt
rapids
montgom
coaches
interviewed
paying
oxid
puerto
1832
contempor
examined
ferr
frequency
scripts
celebration
kicking
pitts
pulp
attending
telec
comprising
fastra
categories
ecology
apartment
proposals
exhibited
ganganelli
##umberland
darwin
dissipating
addressed
migration
nonetheless
impressive
mariah
gabbar
hemisph
nazaire
737
marshal
katia
drugs
pavn
astronomical
brazilian
printing
transformed
lancashire
overwhelming
answer
mammal
welcome
covenant
paranthodon
bracknell
sketch
presbyterian
guidance
retaliation
proclaim
comprehensive
unexpected
guinea
telescope
velocity
mhalsa
mcelroy
rajamouli
hygrometricus
console
orlando
montgomery
arose
bach
bann
euc
gia
gwe
hed
hood
kry
ling
mak
maps
nose
nik
naut
oj
pose
rok
vest
vault
wire
wished
zo
zim
##cence
##ui
##nan
##even
##lide
##pack
##inder
##esy
##aren
ine
inver
inqu
##itis
tough
##iland
##tery
alignment
##utt
anger
chau
##ums
proxim
sew
seed
##istical
##apolis
nea
##ichol
##oca
uncon
lein
leather
tract
##ovil
##ovac
##pts
incred
scope
##assed
newfound
fez
gover
##izong
bran
brings
indo
centres
##keeper
asserted
ware
genres
##icken
emig
monten
revenge
reverse
subd
eps
popul
103
126
millions
##anne
metaph
##ucker
152
barons
repet
lasting
reviewing
insisted
marched
handling
killer
lightning
lowland
radius
parker
debt
pointing
mounts
palm
situations
humanity
micha
involve
hyper
facult
apost
snl
hotels
penal
1891
sexually
silent
denmark
ruins
satir
cardinals
hosts
acceptance
costumes
1882
teachings
1865
judo
museums
discussing
graduated
occupy
##backs
participation
layers
counteratt
pilgr
llosa
cannon
dumpty
cease
paths
romance
ratio
bullet
principle
bonus
fears
multipl
symbols
attendance
vocalist
messages
elevated
reactor
expeditions
muham
karl
torpedoes
##umbered
weakness
encounters
mutual
favourite
##donald
beside
adaptations
hemm
crusade
consequence
papal
yeovil
passenger
platforms
accomplished
eliminate
corresponding
decrease
stewie
explosive
random
seventeen
algernon
hiatus
conscious
gibson
abundant
abundance
rafael
cameras
acknowledged
playoffs
mclaren
magdalen
battlecruisers
amazing
jenkins
lorenz
inhabited
reminis
alphabet
descriptions
redesign
hampered
mvp
archipelago
montene
duch
gy
gem
golf
gendar
hack
ia
jeal
kaiman
lutz
mum
nost
pest
pamp
pomp
pesh
qi
ral
rim
riff
wre
##car
##mal
##dr
##ea
##rim
##hr
thomp
##eres
##erts
##oned
##onso
##icon
##ouds
##omy
##stown
##stapp
##aco
staged
whis
##idia
##emi
chal
chances
chamb
hend
hears
##osition
##umi
##uman
comet
##avian
proof
##rix
##riers
##apa
##abad
aren
exem
exile
exeter
##berger
spelling
hadrosaur
##ostere
compart
comparing
clouds
incons
bohem
perc
commodore
newport
desired
serge
meat
##angel
overcome
coined
indies
blamed
##issart
filed
genes
peer
mining
northumberland
maid
##fting
suburb
subordin
schm
dragon
developer
meter
slaves
conclus
distort
signature
##uchi
discovers
annoy
persisted
advocated
commando
breath
confused
detect
laur
janet
skelet
swift
25th
organisations
progression
explan
handle
##ika
##boards
lessons
debated
anglic
statues
##arnation
arguments
davies
affecting
exciting
devil
certifications
verstapp
1896
entirety
honors
agrees
rebel
holes
identical
rounded
lacks
##took
1862
maryang
dissent
oxide
darkness
deeply
companion
dispatched
breeds
broadcasting
ferdin
logs
jamie
bombers
cheese
##ycle
focuses
chemistry
imagination
owing
feared
fairly
bobby
shaolin
intelligent
demonstration
reinforce
durham
cooking
exhibit
extraordin
elementary
targeted
plumage
emphasized
belonged
bruins
optim
bernissart
besie
wolfpack
segments
constitutional
patrols
summit
abbot
submarines
enlisted
recruited
latest
warriors
campbeltown
congregation
downloadable
overwhelmed
absolut
thrown
forbidden
nicknamed
boulev
frigates
zombie
binding
mitchell
rendition
nineteenth
enzymes
aggregate
johann
storage
unstable
sanctuary
neutrino
crafts
amylostere
mcnichol
administered
gothic
manifest
vulnerable
nephew
crimson
wikipedia
gwend
leinster
governing
reminiscent
thompson
verstappen
ferdinand
cort
cree
danc
dread
dining
fis
feld
fails
foul
gif
gale
hes
hakim
ku
kav
kra
lions
m2
mock
nok
ov
oval
pock
pont
rna
sri
tiny
tapes
vit
yours
##cos
##bit
##mph
##dings
##eing
##lides
##iates
##iating
##hin
thail
##aras
inex
##ali
##isive
##elope
##thrie
##acements
stair
stup
stump
stuff
##tering
reorgan
##ayana
itv
chu
##ulator
##esty
##estock
##odont
##oderm
proced
##opy
##ople
##ctic
debr
degen
##riet
unity
unesco
leo
triv
spy
spoken
##oves
clad
clair
claws
maneu
##quet
resort
##uble
fever
feast
disabled
dischar
carrier
##iban
prehist
flown
flair
canons
poetic
securing
blank
joan
##phal
regulation
buen
thanks
syria
subjected
doors
guthrie
drink
stress
107
104
##airn
infl
mets
slip
barely
nearest
##aux
euro
confessions
##clair
courage
delight
legion
refuses
possessed
explored
monthly
curtis
totally
clement
telephone
moritz
suggestion
fortress
coastline
technologies
##adesh
27th
introduces
suffer
civilization
snap
specialized
traditionally
1899
1893
fights
copia
striker
error
stopping
venom
judg
judith
normand
clearing
murphy
panther
susque
samples
##othy
strengthen
contracts
1870
1874
digit
1830
ambition
hopes
gaoz
hairan
omn
pleas
lifestyle
crowns
drummer
soviets
bonds
rowley
remixes
##rosion
spectrum
ridic
functional
mdot
ingram
coalition
labeled
unfortun
arik
carlos
mistaken
reconstruct
unusually
prompting
witnessed
framework
portraits
challenged
978
prosper
prosecution
update
rumors
deposits
listeners
implemented
crusader
lithuan
ellis
horizont
expanding
nickname
helicopters
##changed
resignation
obstacles
livestock
turbines
frigate
joshua
fossil
fatalities
rendered
chanology
anchor
saxon
excellent
reperto
phenomenon
aldean
vistara
sylv
bhairava
turnpike
tzu
incomplete
proximity
iaaf
jealous
lutzow
thailand
debris
gaozong
cyl
cush
dug
dull
diction
dimin
ely
flet
foster
fighters
gel
gand
hond
kaw
lone
oke
porn
pump
rico
tin
tune
tides
tension
vern
##cock
##uania
##fa
##fe
##mo
##mers
##nas
##nik
##dam
##dish
##dling
##rage
##tory
##jiang
##2nd
##iner
##atra
##orth
##orith
##orrh
inich
##anian
##alo
##itate
##itars
##omal
##ilogy
##sts
##storm
##urbed
##roc
stiff
##olk
##ivorous
##idal
##igs
##igon
alto
##emark
ansel
chin
##osc
##osomes
suez
##opol
seated
arbe
##ardi
unic
trap
sperm
##ptic
##iper
clan
##uster
worse
##acht
boost
scream
relied
roby
marily
##assy
disorder
carroll
output
flame
indie
deciding
joins
remake
remote
empty
worker
liam
monk
monica
quit
subf
retreated
doof
guided
guitars
saigon
##licted
smart
numbering
##veloped
terrible
##tona
##full
156
157
landmark
continent
discontin
provinces
annex
helen
gerald
modes
midfield
conflu
##obee
demographic
visc
##echobee
delays
topological
streams
solita
##opsis
patients
curve
supervis
##ussion
morris
wald
competing
palmer
donations
ordn
affir
worksh
hyph
browns
merri
galax
1892
rebbie
cellular
ruf
averaged
roundab
tribe
1859
improving
maternal
separately
widow
achievements
inhib
dissolution
sometime
strengthening
breakdown
uncover
domnall
discussions
ranger
scenario
removing
dispersed
drown
jerry
preventing
bloody
mortar
hairst
##world
taxi
constantin
celebrity
ceiling
lifted
reflects
photography
considerably
ghat
principles
kinds
42nd
suspected
diseases
canceled
blockade
fairy
kahn
intersections
julio
liberation
52nd
manufactured
mechanism
cuba
ingrid
deployment
minerals
strikeouts
barbara
repaired
transmitted
correspondence
griff
fabric
seventeenth
algorith
prolong
lithuania
jackrabbits
forgot
persuaded
drafted
clusters
assessment
umpire
veteran
rookie
symphony
crucial
buddhist
syadvada
etymology
kitchen
boulder
alcohol
hemisphere
ojib
newfoundland
multiplayer
lorenzo
kaimanawa
peshkin
ralph
gwendolen
susqueh
okeechobee
robyn
marilyn
solitaire
2d
dads
e4
fet
furn
font
hate
hier
jumps
kod
kend
karn
mim
mound
mating
mull
pond
pile
tum
wc
wang
##cade
##mund
##nut
##dan
##dock
##lore
##rist
##tt
##tz
##tes
##oons
##wald
##jin
##arp
inacc
##itall
##itating
##isition
##asp
##oub
##eleton
##ece
##acrit
stans
##ayan
franz
ank
chile
chasing
##osely
shara
##umar
comair
probe
progn
seb
##apter
202
ors
orthodox
pla
arist
unem
prayer
truck
trilogy
eno
##ellor
##astian
recapt
##ostic
aden
##ache
scales
manning
afterward
resolved
agencies
partition
carr
##izers
coh
##enshm
outfl
interrupted
blast
charan
##ribe
betray
##alsock
thereby
northwestern
soap
embr
emma
##ugg
colored
posth
southwestern
phara
drought
aires
supplied
termed
infected
metals
153
119
barnes
##enne
##itty
##amedu
medley
137
characterised
midway
geological
glas
##obon
detective
antib
visions
delano
keen
skeleton
explorer
farms
communists
traders
superst
replay
contrace
treason
profound
managing
nights
wheat
summon
torch
odd
##ogns
1890s
nuclei
flora
jewell
ultr
separation
costume
composers
1888
355
cuts
regardless
wilf
1863
literally
physically
1877
hospitall
substances
commitment
1836
coupled
dolls
visitor
dropping
graphs
polyt
investigate
savannah
throws
channels
scrap
swept
misunder
folklore
legislative
manufacturer
durand
incorporates
concentrations
neutron
tends
##ogenic
##points
carty
arcade
sinclair
leonardo
mirror
depends
attractive
loyalty
loyalsock
yeoman
lawsuit
remnant
sarah
licence
contributions
unsuccessfully
orient
descendants
sediment
##restrial
demanding
dodo
recruit
felicia
springs
proceeds
prolific
tributary
mammals
nicholson
frustrated
attributes
imprisoned
celest
paralympic
nashville
swimming
scandin
atomic
trigger
preservation
hutch
neighborhoods
recalls
reopened
diocese
enlarged
genuine
crescent
corridor
amphibious
vintage
incursion
abnormal
scleroderm
vishnu
nautical
branches
faculty
degener
buenos
arikamedu
repertoire
##orrhiz
anselm
doofenshm
ordnance
stansfield
aids
bic
bog
bells
cure
dup
dried
ease
euk
gest
gear
hoys
jung
kus
kun
lal
lav
lighter
nests
nme
pes
pist
pud
rows
rises
sak
sink
tak
tanya
tucker
vow
vass
vett
wiz
wanna
yu
zr
zhang
##cut
##dick
##lon
##lot
##run
##raph
##ski
##tures
##tovac
##oft
##gow
##gate
##kers
##eding
##enh
##anim
##elia
##elih
##eca
##urt
stolen
##olar
beet
##otive
##verty
shoes
##agger
##avan
projected
neur
ortona
plac
spite
ensuing
compat
herbert
twelf
scor
contacted
##raham
reserved
relating
relocated
reluct
disli
##plain
sheet
megan
##anga
finland
outcome
flaw
whenever
poverty
##cedes
formations
mostar
somebody
assign
assessed
##gression
regulations
filmm
emin
buoy
endang
subc
relevant
##ologically
strat
strain
adds
cros
##otherapy
invis
maintains
##arez
##inski
editing
editors
damaging
##enna
##ennial
respected
139
134
supports
prototype
raids
avtovac
blackburn
versus
thirds
listening
conviction
basal
farther
moons
##ikh
##iker
requiring
viewing
experiments
contracted
charting
treasure
funk
royston
observe
fortified
hamar
facts
burrow
readily
merged
apf
apolog
knowing
##afe
colonists
madh
##anche
duarte
identifies
khoo
1858
1853
creature
1885
privile
reasoning
judicial
panels
sussex
##force
fisher
threatening
theaters
ambitious
maturity
melanch
melbourne
mrna
comedian
junta
punct
750
festivals
powder
##uckle
italians
careers
catholicism
reflection
victorious
investigated
horns
thickness
fantastic
bolton
rhymes
suspect
complained
comprises
remixed
routing
embry
ecosy
rosberg
manufacturers
prisoner
orbital
fluor
kingship
racial
coloured
cooler
highlights
thinks
conducting
eldest
muslims
broncos
##swick
maple
sailing
accidentally
traits
depictions
evacuation
exercised
conquered
randy
gorilla
floating
interception
jagann
advisory
##ught
acclaimed
disappointed
delegates
jennifer
weighed
imprisonment
errors
paralympics
coordinated
toxic
veeru
aerodromes
indonesian
philippines
immortal
luminosity
desperate
brunswick
pokiri
assyrian
riaa
envelope
eugene
michaels
chambers
inconsist
extraordinary
boulevard
arbeider
confluence
ojibwe
unemploy
yeomanry
vettel
##elihood
twelfth
disliked
ecosystem
ae
bil
bite
boca
coc
cage
dir
dow
fission
fathers
gon
gag
gast
lak
lung
mt
mour
nons
nerv
nfl
oath
owe
py
pour
puck
rabb
sut
sod
sinking
tap
tamp
tier
tube
tensions
ule
wool
wany
wemb
##bard
##uzzi
##ders
##lass
##lio
##iu
##ioc
##iya
##vy
##ho
##pro
##jal
theolog
theories
##inary
##eded
##onium
##enic
##asian
##stick
##adows
##acular
stir
stanza
whites
##idel
##iga
reed
beaver
##imol
frames
##usive
chec
chef
chlor
cherry
##ulum
##agg
prose
prostit
seal
seaw
##illon
plent
##arden
unpre
unaware
trace
traces
spelled
enn
enable
##ackdown
##ineae
##osts
compiled
##oga
##ogan
##ogle
worsh
incomp
grac
gryll
intent
intim
intimate
perth
marvel
carriages
outs
outp
indians
bluff
actively
beta
assured
warrant
warships
undertook
peggy
enduring
endemic
revis
albion
albeit
drag
episcop
instances
infilt
inflicted
158
crimes
bark
##space
vari
variant
loft
loaded
expense
expecting
austin
133
##ashes
collision
collecting
glen
eastward
swallow
accordingly
captains
captivity
societies
##ographical
conven
easier
##ikes
issuing
contrary
parking
associations
statute
competitor
competitors
##encer
grandson
260
fortifications
##rington
##amaic
equally
affection
##kii
odys
verdict
oliver
homar
galile
berm
colonna
chapman
quarters
identification
hardcover
henri
width
cruzi
educated
admits
synonym
practical
observing
academ
olivia
testament
##etta
auto
autonom
graduating
1838
participating
1840
1847
ironcl
mortimer
bowlers
concludes
llan
sandy
kras
330
shoots
hereford
acquire
yellowstone
peaceful
suspic
munich
symbolic
fairies
climax
advantages
beneath
muscimol
luke
dressing
comparable
taun
karam
cooksey
rodrigue
diego
kentucky
fluid
tactic
belongs
##irtz
shelter
myths
mistake
##market
consequences
binary
warsaw
electricity
mercy
hanging
protagonists
puppets
hungary
substantially
oriented
evacuate
ladies
eccles
collectively
discipline
##uguen
parasites
kidn
pierre
unpop
elderly
surprising
remembered
innovative
##avery
poisoning
rehabil
zombies
battlecruiser
chancel
bootleg
dictator
sympathetic
reassigned
anticipated
##anagi
neglected
chopin
compromise
spawned
flotilla
dimensional
stroke
symmetrical
ferrari
chauvel
subdiv
fischer
lithuanian
merrifield
roundabout
forgotten
susquehanna
##acritic
posthum
pharaoh
doofenshmirtz
kusanagi
endangered
wanyan
wembley
rodriguez
80s
aj
cove
catherine
fond
gp
gaz
gills
huguen
iber
jail
jai
joke
ki
kor
kap
lun
lip
lub
lens
lovers
mw
mould
mits
nm
nail
pne
rip
rings
sv
tama
vh
vet
vander
wart
zap
##cel
##cairn
##bone
##auc
##nn
##nam
##rin
##sons
##yen
##oan
##wyn
##py
##pin
##pow
##35
thi
thames
##esund
##orf
##aning
##anic
##iture
##asma
tool
##rep
##omon
##eling
##stock
##adir
##aceratops
##roft
##olly
##olulu
whist
rework
##utor
conif
fran
chenn
hew
sho
shan
##aved
##odied
##esses
prow
##unct
neb
plens
aramaic
##arta
unve
unoff
unlim
##anton
leop
pradesh
trucks
spont
##ellation
notor
notting
compact
claire
##aches
boo
abraham
##soft
graz
##outed
roch
marqu
marble
##assing
newark
newcast
evangel
##izer
brom
##lude
coordination
upgr
flint
##acea
pozz
blame
blog
charmed
nobody
remaster
regained
##ctioned
##attan
quake
maori
revers
specially
phases
capcom
americas
drunk
epith
##aneous
##iolet
metacritic
slavery
##areth
159
crist
distress
disturbed
varieties
medway
greece
collector
collective
midnight
confident
gliders
inscribed
delta
topics
controlling
solve
solutions
destruct
possessions
temp
villagers
entertaining
calm
reprinted
trademark
superv
lowered
everybody
angered
survives
navig
membership
grande
##aughter
irrig
activated
connie
excited
devices
introduce
introducing
turret
verm
predator
encomp
favored
averaging
keyboard
individually
tribbles
hardy
1883
stoppani
teaches
camel
judged
susan
violacea
economics
1876
domo
domain
discusses
deadline
pays
touching
babyl
1837
##uku
occupies
absent
ambul
disputes
layout
matrix
##agonal
raton
ensued
##inyi
pitcairn
accessible
fantuzzi
chemotherapy
financially
nationally
precise
incorrect
dresses
struggling
nesting
illustrations
lucky
essex
eaten
microsoft
shelters
definitely
opted
rubble
bitter
loves
##otypes
jeffrey
papers
municipality
mercury
decreased
marcus
predecessors
demolition
alpha
ceratopsians
songwriting
harvest
embarr
metallic
metallica
reproduction
##holm
analyzed
yugoslav
overlap
harsha
moody
fossils
peckii
tackle
satisfied
chancellor
expectations
juris
brutal
tolerance
overlooking
chaos
juveniles
fingers
accumulated
friedrich
bacter
josce
lemon
butterfly
saginaw
explicitly
autobiography
javelin
coronation
treasury
quadru
murdered
adriatic
stegosaur
adequate
fierce
contemporaries
pittsburgh
eucaly
krypton
consciousness
percussion
sergeant
feldman
fletcher
gandhi
altogether
discontinued
viscount
hyphae
constantinople
glasgow
##obonelli
eukary
zrinyi
jagannadh
mitsuda
plensa
unlimited
newcastle
pozzobonelli
aur
aot
aoc
aber
aria
bot
bened
cum
coss
d4
dome
ditch
finger
gau
hil
ix
jill
len
lact
lighth
ms
nina
ras
rent
rovers
siber
tears
ui
uh
##uber
##mill
##diction
##rance
##ridge
##racted
##iop
##yden
##gon
##hor
##40
thorn
theft
theology
##inz
##orian
##ometer
##ilian
##iliers
##stage
ono
##rov
sta
sto
stained
stokes
##olor
##iths
##chem
fringe
byron
atoms
chester
shipped
##agus
##agram
proct
suited
seize
sealed
plates
plastic
plaza
##alling
##occ
unanim
##antine
leaked
prair
proud
##ieu
##earing
notion
notices
afraid
adul
adrian
twicken
##acharya
incl
incumb
incidents
contents
contested
grid
mann
manages
manoe
amber
perf
timbal
fees
apprent
aging
##pling
##izations
brush
braves
coy
cox
##ensus
preach
flour
interim
decent
##ailing
blond
charitable
consec
consensus
assume
engaging
undergrad
peas
empl
seasonal
monitors
syll
##tershire
retiring
phon
saur
supporter
performs
instruction
slope
operator
crane
distinction
barn
barometric
##leys
##aphore
steven
steady
eddie
loading
governors
redo
nationalist
median
138
protector
extinction
glory
glitter
trips
deton
shorts
145
demo
##ogram
insult
hurdles
topic
authored
busy
lighting
##lett
imported
haun
cultures
217
countryside
243
purple
sitcom
vij
primitive
odes
circulated
mck
hole
##lessness
informal
satire
1852
1850s
rankings
escapes
privately
1866
semaphore
investors
physic
1872
huong
scenic
senators
contempl
anthology
couples
astrae
temperate
beaches
pleased
attraction
ensured
photo
springfield
owl
complaints
northwestward
doctors
luis
etc
progressive
websites
sustain
dogs
manufacture
wednes
encourage
vicar
requirement
cleaning
550
adjust
hibiscus
molecule
townsville
atmospheric
philosophical
virtue
induction
speaks
speakers
brighton
rivalry
hindi
hindenburg
sponsorship
sidon
litter
contribute
paved
descended
878
ornament
strategies
##eux
disciples
ancestry
frost
robertson
corpse
harvey
rhodesia
nomura
advisories
palmyra
limitations
azores
confederate
horizon
holland
cecily
diversity
mclu
cytoplasm
diagnosed
diagnosis
inferior
prospect
eguchi
abolished
triangle
datab
disagreed
strictly
accomplishments
pseudonym
advocate
gentleman
staples
ceremonial
excluded
bulgaria
denomination
tobac
reagents
thriller
fusiliers
anglesey
lebanon
perpet
boilers
malaysia
monastery
proclaimed
epsom
exempl
trivial
horizontal
wcw
invisible
uleki
gryllotal
domoina
twickenham
manoeuv
timbaland
ather
bachel
cement
dhar
file
gaga
ja
jas
jtw
kem
kaz
kaly
kashi
ln
lac
lust
ming
mouse
nir
nancy
pere
peng
punch
rer
rut
raph
raz
rash
tud
tatt
tyr
viz
vick
wwe
xef
zen
zoe
##cach
##cles
##feld
##lf
##tra
##iere
##oa
##oids
##hand
##wild
##woman
##zens
##xd
##xi
thak
##erg
##inter
##inely
##instein
##onts
##atop
##oria
##enary
##arma
inari
input
toss
##ouver
##ioned
##repr
##entin
##stood
##amic
##amous
##amoto
##uras
##aca
stamp
stored
stunt
##idan
rept
reinc
reef
beast
alam
ally
alarm
isa
isla
convert
chore
chee
##ulators
##verly
shin
shops
##agne
##ainted
placement
plasma
##abling
arte
arrows
##orton
exagger
##arten
##isham
pruss
prices
trim
spill
spans
spaced
spike
##oved
##asted
##ourt
##mented
aft
##ogues
##solete
amun
reliance
marrow
##owned
disney
##izz
bride
brass
weird
weyden
overnight
prel
pretend
upstream
##acts
flatt
index
norse
decisive
blake
nob
nobel
consort
underlying
monks
daylight
winston
##terson
colin
submer
doo
##hips
guang
airing
##ificate
strings
smackdown
longacre
artif
invented
millimeter
##atches
##veer
obsolete
slated
cream
nova
novak
estates
estuary
##elsk
signals
downs
##ahu
stepped
discour
discarded
edmund
proven
majors
anywhere
publicity
protective
humorous
gloss
waterway
wayne
governmental
antilles
insist
insuff
insurance
huron
delhi
##ographer
30th
moored
calendar
realize
realizes
requests
televised
postp
freely
politically
politician
halfway
pressing
combine
##ambu
pursu
hammer
massa
masses
faction
woodward
woodfull
affects
trot
broadly
hybr
brownish
meri
merge
merger
mercedes
olive
declining
bowler
circles
ruined
##marcach
jewel
jewels
1855
rulers
1886
secretly
bigger
1860s
synopsis
employee
commercials
princeton
screening
surfaces
immun
digging
intensify
darker
caa
1842
zealanders
dubious
revealing
benz
emerging
##facts
carefully
architects
investigating
ramon
essays
crowned
scrapped
thunderstorm
rearguard
bassline
rowson
linking
prominence
prominently
necessarily
370
extrater
slee
actresses
farmland
mobility
avoiding
doubled
choral
flags
eager
stockholm
bruges
favoured
cartoon
resembles
mushrooms
psychological
prosecut
expeditionary
##manship
interactive
hangzhou
roofs
guybrush
phillips
decreasing
beltline
rumours
witches
orchestral
moderately
echmarcach
wyatt
explosion
##ulsion
voyager
##strong
instructions
varying
ahk
ticket
pipe
cobain
floors
sulfide
##huveer
raghuveer
escorted
tongue
integrated
crystall
vaishn
antiquity
antiquities
inherited
tamil
teenage
riots
harmony
ludlow
rehears
tackles
refugees
carnival
hazard
prefectures
umpires
scandal
ostend
determining
##unciation
staple
confrontation
ceremonies
referee
shrubs
allegations
mathematical
warnings
neighbouring
fulbe
ltd
relaxed
accusations
eligible
populace
metaphor
subordinate
absolutely
dancers
prehistoric
unfortunately
aristocr
unpopular
pneum
benedict
proctor
astraeus
wednesday
mcluhan
tobacco
jtwc
thakur
aisle
bree
benson
cig
cord
cope
cai
cedar
diana
erosion
fau
fitness
hd
hiv
hipp
ibar
jut
jak
jub
kling
lunch
lamps
liang
moss
mumb
nol
nomen
niece
oro
psp
seller
sizes
tann
viv
wield
yosh
yoko
ælf
##upp
##fr
##front
##aford
##dou
##eers
##say
##iat
##vara
##yd
##yan
##gi
##held
##60
##zt
##zog
##zher
##5th
##inh
##enstein
##aro
##asia
##iceratops
##omo
##omed
##omorph
##elect
stumps
##etically
foraging
##olese
##oloph
##idas
##igo
bee
beeth
itunes
contend
fract
chick
##osomal
shirts
##oded
suite
##oped
sear
##ctive
##ctane
deeper
neo
nevers
##illance
plut
##abilities
lex
lease
spher
haddock
##ellers
##ipe
hermann
herbie
##ogna
##tebr
abstr
##okan
marit
timing
##asses
newer
disrupted
brent
outn
flanks
blown
wouldn
##cestershire
knife
accent
consumed
genius
eliot
quart
wines
guilt
dred
airplay
popmat
smoking
diving
128
##tenham
belle
belfast
terti
armstrong
invention
millimet
performer
##veillance
portland
slate
critically
critique
downgraded
churchill
edin
edible
loosely
provoked
anna
shipbu
designing
advers
##gestion
##rolled
efficient
attackers
middles
##appers
detached
149
particles
demons
insert
courty
delicate
refusing
soccer
solved
storyt
persona
promising
promoting
heaviest
moors
communal
sentenced
realism
##merie
patterson
curric
rockstar
freestyle
everywhere
castles
moray
morale
referenced
managers
sounding
irre
24th
pawn
flex
fleets
280
devote
bias
figg
frontal
hyder
odor
novelist
specialist
scientist
selen
##afts
tomita
mcg
strips
##kingham
rebound
rails
holotype
##lessly
macar
tribble
derives
loses
ern
erzher
accepting
dominion
achieving
reasonable
minorities
comeback
lengthy
horsepower
1879
1870s
properly
1833
arabia
cataly
ambig
renowned
laying
##zzle
platte
alike
breeders
broadcasts
mountainous
marketed
cheap
gros
oswald
celebrations
awa
ensuring
320
photos
masc
acquisition
complexes
missionary
paperback
analyses
kaiser
wears
reformation
progresses
sleaford
spectators
congolese
terminal
mobil
orbits
heights
tended
narrowly
dinner
admiralty
appealed
fragilis
pursued
legendary
fluores
stockwell
##lamation
trustees
raiden
virtu
carlisle
##atoes
wisdom
levine
grossing
firmly
summers
contributing
mycologist
mycena
supposedly
rebuilding
exercises
1769
felix
utilized
remarks
transformation
automobile
tiger
ancestors
pedal
kinder
displacement
folded
throat
interpretations
dorothy
reconcil
excessive
enhance
gambling
hubbard
abolition
quantities
chestnut
sentimental
determination
sectors
megaliths
juvenile
hypothesis
##esthetic
evaluation
outfit
trunkline
accelerated
buckingham
wolver
motifs
licensed
outdoor
continuously
kubica
monitoring
dorsal
forecast
unhapp
sacrifice
colombia
medicine
diane
kaboom
ineff
duchess
gendarmerie
explanation
dreadn
dictionary
galaxy
sebastian
orsogna
hoysala
odyssey
bermuda
ecclesiast
nottingham
gauge
incumbent
redoctane
bachelor
tudor
submerged
ælfric
popmatters
tertiary
erzherzog
ail
auck
bb
cz
dere
dare
dwell
darden
erik
fuse
gb
gav
gonna
hbo
heter
hinge
jama
kas
kpa
kumar
lag
lament
mp
mith
nem
nos
ngu
og
pater
pitt
rous
rams
ske
sins
sided
vinc
voting
wand
wally
wern
wages
wica
##bec
##fil
##mah
##list
##lance
##rough
##rome
##rained
##ression
##rams
##hurst
##hattan
##pi
##pot
##edon
##enia
##armed
##itational
toys
##icz
##omer
##elly
##thms
##advant
##eters
forested
##olus
reel
##owing
alonso
alesund
ishm
anfield
chas
chant
cheer
##ulip
heated
##andis
sham
shah
shoo
shapur
##umble
##umped
sue
suz
##opter
##rific
##istically
nee
organs
plaster
uneven
leve
##ghan
pride
prism
spark
envision
noticed
reclaim
herds
clut
butetown
worried
bolet
bobc
scouts
grants
grisham
manhattan
##athed
amanda
relat
newman
disg
disadvant
caravan
##iley
meth
meyers
evol
bruss
fins
overth
ups
flocks
parat
noel
knuckle
accounted
##gren
warner
maybe
underwater
emily
monte
monitor
larwood
retaining
dole
guys
scheer
capit
worlds
airspace
generations
founders
locals
backwards
britt
##annon
slower
slash
runner
##spective
churchyard
steals
gerry
modest
missile
config
classics
lasts
148
gunn
swan
solic
convicted
periodically
authent
##attering
handful
##iki
##boats
lawyers
postseason
moravia
effectiveness
walked
angular
angels
defeats
23rd
totaled
richie
eighteenth
activists
massacre
connector
doug
occurrence
devised
##atorial
##bee
275
civic
virus
certificate
puts
merit
##ophone
circus
lycoming
selective
penis
berlio
encycl
independently
mcdou
bayeux
colleg
colleges
honest
processes
##marks
macl
talented
urg
hosting
diary
businessman
1884
escal
expressing
motivated
garth
observes
priority
watches
availability
theatres
happens
happiness
##ometry
1831
1834
robust
naturalist
granting
slowed
jeremi
corners
feral
ceo
meantime
ottom
bankrupt
portraying
wounds
rowland
precious
diamandis
tonight
enjoyable
necessity
shrines
complaint
routine
1821
peronist
luther
dunn
480
surveys
struggles
categor
allegian
elevations
spreading
concentrate
compares
1801
##kinson
proposes
targeting
##ogenesis
custody
fixtures
ivan
baja
democrats
##ochond
addresses
barbours
virtual
jointly
sends
resembling
57th
trailer
crashed
negotiated
stalk
cruiserweight
customers
citizen
spinning
instructed
dangerously
sprint
pirate
preceded
jaguar
patronage
verteb
lobb
accommodation
##realm
iconic
gladys
fernando
theoretical
persuade
consultant
oblig
salvador
funerary
frustration
recipes
harmonix
enhanced
clinical
gambia
coincide
culminated
resolve
guerrilla
appreciated
facilitated
aerodrome
consolidated
dahlan
subsidiary
podium
ozora
airfields
constituency
cottam
intercourse
suburbs
provisional
pearl
prevalent
arnold
echoed
glorious
uyghurs
invertebr
pilgrim
pompey
conclusions
normandy
workshop
griffin
summoned
torchwood
polytron
scandinavian
##orrhizal
nervous
episcopal
huguenots
tamaulip
wartime
zapata
unofficial
vermeer
lighthouse
siberia
undergraduate
database
reincarnation
islais
artefacts
mumbai
neversoft
outnumbered
edinburgh
shipbuilding
macarthur
ecclesiastical
nguyen
ishmael
brussels
knuckleball
berlioz
tamaulipas
bess
bard
bench
cc
cinc
craw
ect
fog
fals
gems
het
hass
hank
jokes
kess
kitty
laz
lope
nr
nambu
pau
ratt
rca
sage
saga
ti
tir
tart
tying
vanc
wad
wii
xi
ze
zh
##cd
##cill
##care
##uits
##fi
##fraid
##mare
##aig
##nity
##nick
##drop
##raged
##sa
##iastic
##vent
##vet
##view
##kind
##pit
##part
##22
thief
##inson
##atories
##origin
##enues
##arat
##arius
##anium
##iti
andh
anders
##ouk
##ouche
##eces
##ecess
##ecomp
##ecca
##thick
##stin
##urp
stance
stela
##etto
fork
##iry
##igm
##igious
rey
reapp
alv
##ching
##chel
thatgam
isis
byz
##usc
chip
##uling
##ulata
heath
shame
sharing
shafts
##ods
##essing
seap
seym
##isto
neon
orph
oricon
plural
##abs
arbit
lend
##uding
pras
engr
enlight
enroll
##iev
##astrum
##iah
cla
clip
adorn
worthing
abrupt
conting
contests
amy
intro
reson
relates
##outing
roose
newell
serg
dispar
google
gofraid
##plant
wever
##pring
attain
blair
parodies
noct
accol
highlands
assets
##velt
genesis
minne
minds
minsky
soir
empt
bund
bugs
quot
thanhous
##ftime
subsc
dozens
phoe
presid
capped
capitals
drains
surveillance
strang
epid
generating
124
performers
instinct
portico
teammates
infant
criteria
crom
crack
depot
bars
stee
stein
stealing
edith
roadbl
smallest
##ashing
##identified
proto
protecting
collins
confined
confisc
geastrum
##obia
shortage
entren
demise
antar
antio
antimon
insect
insane
gunpow
halftime
timeslot
organize
organisms
solitude
destinations
convective
convoys
basil
divisional
exploring
calder
realm
squat
superficial
##otta
councill
professors
jackie
##retion
programmes
michel
michelle
labelled
argue
limbs
connor
illumin
torr
broader
praet
merging
apoc
317
natives
madres
ruin
keyboards
macdonald
tribune
flightless
deriv
talked
casey
transporting
composite
councils
commissioning
admired
##umbled
##umbria
probable
radioactive
stays
1867
employing
lengths
likes
physician
accounting
huai
objections
deadly
payment
payments
1830s
##uka
1840s
examining
melod
ferb
healthy
hawks
logistical
pianist
taxes
franco
francois
sovets
committees
awaken
lift
lifel
craig
utter
ghats
coldplay
dismay
owed
pictish
yellowish
rhythms
sharks
hydnell
cabo
cabral
modeled
muscle
embassy
duncan
strait
julia
libret
haitians
demonstrate
incorporate
mechanics
comparisons
encouraging
exhibits
650
feedback
repeat
tripoli
sensation
ibn
democracy
shelley
shelby
barbie
reunited
flanked
cinemat
volunteered
negotiate
tallest
##innati
marshall
submit
corporate
bleeding
subtle
danish
unnecess
bosi
##related
leukemic
decorative
dags
proceedings
sheridan
mansfield
pedest
congregational
nomine
lobster
inauguration
ellen
inherit
supernova
enforce
relieve
diversion
attribute
picard
cluster
revolt
bulkhead
fiba
nutri
uncertainty
adoption
lisbon
liszt
validity
namely
neighboring
veerasha
lindsay
devastated
indonesia
compensation
bulgarian
kristians
mathematics
stallion
unwilling
suburban
insurgents
plagiar
editorial
persistent
disappointing
disappointment
viking
pledged
amendment
legitim
ricci
antagonist
rpg
surpassed
lambeosaur
nhc
inventory
woodsboro
memoirs
differs
banner
sewage
satirical
muhammad
skeletons
bernissartensis
pocket
honduras
misunderstood
sclerodermat
melancholy
gonz
owego
ennis
worshipped
taunton
epithet
tempest
jurisdiction
bacteria
prairie
insufficient
vaishnava
hyderabad
shooter
lopez
vancouver
##ecompany
thatgamecompany
roosevelt
minneapolis
thanhouser
phoebe
gunpowder
hydnellum
aims
boun
bury
bare
dol
ero
fass
fare
fitting
fisa
gm
gym
hale
hilar
ist
iuc
jih
kot
kai
lamp
lingu
nord
nude
oss
pike
pdr
rm
rust
tac
tina
ug
vap
vague
vene
wit
wig
wied
wrec
ylide
##col
##cian
##caster
##bons
##uf
##fo
##finger
##feit
##mi
##mish
##mother
##do
##dp
##vas
##vae
##wine
##kov
##pic
##zan
##zuel
##55
##10
##1st
theodore
##iners
##eses
##ataka
##atisf
##orus
##orrow
##arc
##aline
##isi
##isch
##icut
##thane
##ampton
##aden
wasps
staging
sticks
forge
##olent
##olate
##irable
whip
##idy
##ido
##igen
##chair
##otenic
confer
framed
friday
##usz
##usions
chay
##ulan
hey
healing
shi
shiban
##avor
seeds
##rium
##rians
##apet
##icherry
unidentified
leis
leased
trin
trent
tresco
trunc
sprit
enacted
enabling
recount
reclamation
##ineas
compuls
hered
click
grat
amede
intric
rely
desires
disin
carving
finley
outlets
##actic
decree
##keep
blaz
##mania
accidents
rememb
assignment
##grass
##group
##pherson
regards
underway
underwood
peers
lateral
minh
elong
elbow
soils
libert
revision
winters
wintory
subpl
larvae
retains
broward
phineas
presum
polka
generate
smok
locke
transitive
diverted
longtime
croc
##ierre
maine
slav
operative
1500
discography
openly
openings
reddish
prevention
designers
##ittings
meddings
magist
augustus
##resist
grecian
servants
breach
breese
successes
furs
humid
reporting
archery
detachment
laure
laura
##ientious
entity
eleg
keeper
##ervisa
##lington
refurb
differently
solving
explor
moh
moor
calib
##lette
presenting
patient
markings
##scope
viewer
billed
rocket
fret
trem
profitable
seeks
associates
##luor
##whe
propriet
sounded
flee
fleming
activist
horus
heroin
burnt
burnley
shoulders
technically
primetime
burg
cascade
50th
footballer
reads
earthrealm
olaf
declines
campaigned
narration
penelope
##oxide
tomorrow
fauna
satake
tribal
hardly
treatments
##isticated
cruel
quebec
1869
garage
negatively
semen
banning
constructors
specifications
testified
indiana
montagu
professionally
professionals
1873
exceptions
immature
immense
intensification
displaying
spanning
cornwall
logo
logical
unders
concluding
tennant
omitted
sandstone
sandwich
failures
constituted
##osphere
husbandman
scrub
picking
bassist
confirm
beneficial
1825
lux
embro
embark
julius
grassland
ecological
illustrate
qualities
momentum
conversations
ridges
doubts
withdrawing
ethn
cubic
ingred
permit
aux
mineral
ibotenic
democrat
volunt
faithful
cooling
vertigo
falcon
drops
parallels
psychiat
astonishing
fictionalized
tsub
attracting
grossman
patrolling
disappearance
sponsor
stretches
imprint
exceptional
benefits
##iciency
flashback
monarchy
qedarite
phoenician
recruiting
townships
deposit
deposited
910
dynamics
gamer
carbonaria
scholarly
seventy
absorption
napa
ancestor
pipes
sulfur
merchants
goddesses
audiobook
tightly
andrea
innovation
teenager
baldwin
enforcement
offspring
commemorated
granite
nineteen
deception
outlined
neighbors
synthesized
overlooked
vibe
connecticut
enclosed
rejects
drifting
##walk
maskray
comfortable
pronounced
plagued
bosnia
guarantee
exceeding
legitimate
heinrich
summarized
conspiracy
hymns
gabriel
dignity
agaric
revelation
oxidation
mammalian
zimmer
counterattack
montenegro
pamph
laurence
yourself
discharge
midfielder
supervisor
hairstyle
prolonged
wilfrid
bileca
nonsense
convenient
hewitt
unveiled
remastered
physicist
prelimin
flattened
hybrid
beethoven
abstract
maritime
auckland
czech
paratro
mcdougal
collegiate
ottomans
allegiance
lobbied
cincinnati
seymour
praetervisa
unnecessary
ricciardo
fassl
iucn
venezuel
trescothick
amedeo
ain
aar
biz
baham
ci
cere
dhang
doping
fang
gases
hath
hitch
heller
ile
ironic
jov
kay
lern
lech
laps
lano
lulu
mk
mls
nd
pt
rus
rats
ranch
rector
surn
sipp
till
tull
tired
ucl
uday
vernon
wes
wise
wyn
xu
##core
##cano
##bag
##uity
##mire
##aid
##aul
##nia
##last
##lake
##tusa
##iago
##vana
##yah
##yards
##yuan
##game
##hill
##hard
##horn
##kok
##pur
##pah
##19
thumb
##inas
##atan
##atri
##enque
inapp
##anor
##alid
andr
topping
##rea
##reen
##omore
##elines
##entric
##thy
##stri
##ambo
##leased
##leton
##roscop
stam
stake
reub
rejection
beque
alk
alert
##imp
fres
fraction
cher
chol
chir
chast
##ulus
hex
##oso
shed
shocked
##avag
dear
##apul
##ectives
plague
##akh
arise
exempt
unions
unified
##ishna
##berys
traced
sple
splin
aretusa
##ptical
##ptide
##iano
##orde
afghan
##ustin
adoles
abort
abdu
screw
grapes
##urethane
##qual
amal
perce
##okrat
##pert
marina
marriages
timeline
##assment
feas
desk
deserted
agustin
disast
disemb
immin
sheen
evid
##ffy
weber
financed
preference
outages
canopy
interm
ears
##icea
attitudes
##cedented
tender
assists
regulate
maat
maids
speck
subgen
define
bros
guests
presumed
capilla
drake
stranger
backup
backdrop
beloved
develops
slant
slaughter
creates
crass
distract
barriers
grouped
##inda
raiding
gamespot
corruption
array
avat
triat
builds
reachability
antis
##ograms
haraj
insular
halt
typew
captive
differed
convinc
conventions
periodic
farmer
moham
europeans
standings
patrons
localized
totals
##bsa
poster
posters
posture
morel
treb
fungal
findings
palenque
richards
26th
28th
##yne
electoral
heroic
factions
woody
traverse
fifteenth
burst
burgh
hymen
facial
declare
volcano
letting
homeless
voters
galeric
galentine
salts
researched
berk
copyr
##archy
strikes
ideology
heavyweight
sanctioned
motherwell
agreements
natal
pitchers
recognise
harder
##gnine
improvised
premium
roseberys
commissioners
dominance
1887
358
##lining
admission
reduces
launching
privacy
1864
sync
girlfriend
judges
rapper
hitler
dissolved
testimony
contracting
martyr
otto
ranged
touched
canadians
travelers
hunted
rena
caen
lyrically
1844
examine
##iosity
trafford
badge
punk
bordering
frankf
taxa
taxonom
counterparts
francisc
emerge
magnet
analog
polyurethane
celebrating
please
lifes
foliot
principe
portrays
experiencing
thirteenth
screenwrit
microl
nationwide
ashes
textile
locked
borgnine
comprise
questioning
alexand
candidacy
reigning
extravag
fatality
typeset
demonstrating
illustration
nickel
surrey
campuses
riders
tavern
andrews
cookery
lester
ibrah
columnist
glasses
troubled
dramatically
racist
migrate
biographers
biographical
crowded
rogers
vulgar
mirr
highlighting
1794
worthy
yeah
brooklyn
gravitational
thermal
unsure
joyce
grip
trauma
1759
courtship
resource
customer
criminals
lambton
explosions
stevenson
substituted
superiority
automatic
consumer
accurately
piper
sightings
shifts
shifting
interceptions
implied
lobby
merchand
conscientious
divorced
iconography
answers
confederacy
switching
boreas
nursing
sicily
vaude
##ocyst
nicol
##changes
obligation
enforced
delivering
portsmouth
##grove
surgeon
supplemented
fascin
santiago
wonderful
satisfy
unreleased
elephanta
allegedly
dwarfs
tutor
possessing
pioneering
##werff
##rophic
coincided
sophomore
quantity
fulfilled
sketches
recommendations
mitochond
deceased
culminating
outlaw
enthusias
enthusiastic
masonry
devastating
facilitate
referend
espn
habits
##aksin
compensate
patriarchal
prestige
paradox
sterling
cliffs
feminist
assumption
glamorgan
kleine
nf3
moisture
ukraine
elliott
phylogeny
confronted
sporadic
avalon
penalties
whiskey
bohemica
inexper
reconstructed
sylvia
##apteriscus
plaque
superstructure
celestial
jungle
wizards
scoreless
punctuation
powderfinger
embryos
unemployment
##idelity
unprecedented
academics
rehabilitation
vanderwerff
emplacements
vijay
gryllotalpa
jasper
pengu
pneumonia
jutland
##olophus
quartet
kinderg
unhappy
envisioned
gunnery
##original
prasad
presidency
entrenched
antioch
awakening
lifelong
veerashaiva
preliminary
lerner
sippy
inappropri
afghanistan
imminent
harajuku
typewrit
copyright
aif
bg
bing
bout
batch
baha
bunk
cogn
cunning
dn
dash
duck
dante
ery
fc
fcc
gly
gama
hm
hog
hides
hailed
hiding
ig
jing
kl
kre
kart
kant
kins
loun
lined
lots
lsu
laser
mates
murch
mash
nike
oc
ou
oth
ogh
pard
pity
pto
peck
rope
riot
rfu
spp
sire
seld
sier
sque
trop
tanz
tips
tables
ud
ving
vatic
wł
wond
wuz
wadi
yah
ال
##cans
##ben
##bus
##fc
##fle
##fold
##nh
##des
##eater
##lc
##long
##rag
##rill
##rab
##rink
##rades
##vogns
##yi
##yo
##ydon
##oqu
##hall
##wright
##waters
##pat
##pad
##jing
##zing
##zco
##28
tharp
thaksin
thea
##erb
##eri
##atur
##atos
##atile
##enes
##enian
inade
inev
inocy
##itul
##isse
##isfact
##isaurus
##asi
toird
##icing
##icular
##icating
##elbach
##through
##amily
##aders
##rox
##roqu
stol
stib
stoke
forem
##irs
##terial
##idium
##igouche
reint
##owitz
beads
bearded
beverly
##imm
##imination
##child
conced
conjo
conrad
anx
ations
##very
##estones
shapes
##avira
hispan
##oding
sup
seth
##ista
plank
##abol
##allus
exceeded
unite
unused
unbeat
##ppe
lever
##uded
trout
spise
spare
spector
spiders
enrolled
##ipher
##mental
##orda
compare
hernan
clive
clown
clash
firms
ador
adjo
##ogamer
wors
incub
boots
scapa
gra
grun
manned
manheim
amps
amnest
intentions
reli
relate
##irected
serp
appl
agon
disruption
carc
caret
bram
brandon
overly
outg
outright
outrage
flock
indent
##urnal
blof
tepe
noitul
consoles
regen
regulated
peat
elimination
##atty
buying
quint
quotes
##uga
coler
##fta
posed
guat
drained
draining
stressed
foundations
transf
transcend
receiver
terrestrial
musically
portage
infections
slot
milan
##erty
concolor
##erness
crust
##yla
deprec
barrel
discretion
opener
lohan
governance
famine
reds
redoub
everett
persians
bests
##onyms
protested
eurogamer
arrange
aviv
detection
restigouche
builder
demokrat
visibility
skilled
captures
refusal
solitary
possibilities
promises
promisc
buses
fielding
similarity
reala
curious
supervision
rockets
lowe
sayid
counted
moroc
radial
suggestions
debts
differentiation
iran
irresist
221
criticizing
hamm
coasts
royalty
woodlands
structured
travis
toro
casuar
##grounds
##ieces
biology
kingdoms
volley
religions
snakes
tomas
chapels
sexy
319
silence
denial
halls
creatures
premises
diable
diarma
accepts
dominate
baltic
foca
mosaic
privy
probability
dealers
panama
ancients
choosing
dissol
likened
foods
##ihan
goalsc
martine
##etti
1875
autonomy
huizong
bodø
happening
1839
arabian
robbie
surroundings
caution
disputed
coul
boyc
1845
bridgehead
louise
melodies
comedic
irony
juno
boxes
benadir
counterpart
winged
causeway
magnolia
chiefly
krishna
reinst
acquiring
ignore
dismant
flowing
principally
imaging
pulse
recovering
impacts
rowing
suspension
attendant
plantations
reliefs
hyde
texture
rescues
516
shawn
1824
messeng
candidature
48th
extras
julie
##breaker
corey
sculpted
dangers
incorporating
muzzle
comparatively
conversely
barrows
tendency
narrower
splits
ethiop
synthetic
definitive
ryder
racism
biographies
mandatory
##ascar
resemblance
mistress
kurstin
monumental
grayish
stephan
fashionable
tyre
jainism
jacques
polls
bronx
license
dockyard
oriental
packed
intentionally
dodge
eccentric
undertaker
instructor
shopping
simultaneous
parasite
accuracy
retreating
ceratopsian
ascension
harvard
purely
intercepted
diamonds
nomadic
bangkok
ericsson
alteration
agreeing
mystic
forbes
andreas
illeg
jenna
cameron
trends
coward
fascist
magdalene
drafts
bunker
ruthless
unreli
sparked
installation
cytogen
prospects
iraqi
laughing
sophisticated
sociology
enzyme
hastings
semifinal
chords
depressed
depressions
enclos
excellence
panzergren
buffalo
subsidies
kauai
iceland
mongolia
beauf
transe
microscopic
prestigious
lodge
nigel
rewarded
affiliated
licensing
executives
thoroughly
rejoined
disguised
vengeur
ambushed
guru
spokesman
incredible
repetitive
hemmema
wreck
anglican
besieged
amylostereum
staircase
stupid
maneuver
snapper
digitally
cylind
annexed
algorithm
kendall
karnataka
ankle
pistols
vowel
vassal
stratford
mourning
theologians
bluffs
ironclad
nailz
veto
destructive
irrigation
ambulance
lactarius
postponed
prosecutor
orozco
storytelling
curriculum
vertebrae
invertebrates
ectomyc
byzantine
accolades
roadblock
sclerodermatineae
jihad
lanois
reubens
renaissance
referendum
kindergarten
ptole
sierra
wuzhu
##vognselsk
inadequ
toirdelbach
unbeaten
spisevognselsk
blofeld
noitulove
demokraten
irresistible
casuarius
diarmait
panzergrenadier
3ds
bj
bak
bast
bust
bung
cis
cay
cute
cafe
dand
dart
dell
dip
dana
eis
erect
fm
f1
fland
fake
faint
fused
fonts
fittings
gc
hect
hamb
hilda
io
ich
jains
jiu
kok
kress
kerry
lp
lent
luck
m1
mural
mats
nx
nile
norton
oy
oahu
ply
piz
pied
piet
piers
pores
rally
rational
ramb
rude
roster
ses
sits
sihan
tents
tempt
takum
tbsa
ved
vall
vasco
wies
wak
wru
woo
yak
yok
zy
##cz
##cile
##court
##bage
##uxe
##mu
##matic
##moor
##ais
##aulted
##nected
##dha
##eh
##lain
##rently
##rimin
##ragon
##sm
##top
##tze
##oque
##gil
##gone
##had
##hot
##wet
##punct
##pieces
##jee
##2o
##38
##erget
##erdale
##inished
##edience
##esa
##esby
##aned
##itement
##isbury
toso
##omach
##eles
##elic
##elage
##ente
##stop
##amine
##urred
##ados
##adicea
##acomo
##lex
##roe
stops
stalled
stems
stunning
stomach
##etr
##eting
##oland
##iris
whedon
##igators
reich
##ithe
bea
alder
##cha
##utta
fright
frances
ans
ches
chad
##ulatory
##osmith
shadows
##agi
##agar
comrades
##avi
##odus
depr
neoc
##iffer
org
plann
##abl
##abi
##abolic
exodus
##arted
unac
unim
unpr
##anted
lept
##udy
traw
tryp
traps
troms
spine
spru
splic
enix
energet
##ieff
##oughts
##oval
##ptive
##ipoli
clamp
clips
adher
adolf
butler
##tees
##tender
twe
##achi
incon
boadicea
scan
contamin
##quest
intensive
reside
##okho
roost
robe
marse
timed
newmarket
feather
disass
carlo
carrie
##ilee
mead
bred
bris
##ensible
##ensahl
##ultimate
upcoming
outlet
blaine
tea
##ported
##manuel
joey
noon
kne
knot
somewhere
somehow
warming
thrust
emi
monke
acapul
syb
syr
revisions
##raltar
defining
defenses
schem
fourteenth
sah
capability
##endra
strained
##ssen
singled
smell
transplant
##intus
croydon
invested
invites
statehood
ported
inflict
slipped
creed
##iett
milton
crests
barrett
neared
runoff
edwards
shipyard
helik
preview
designations
expired
augmented
136
efficiency
##ysław
imperson
imposing
##ancement
protoceratops
justified
midst
geology
humil
myers
archaic
glaz
shortest
shortened
versa
demograph
harper
insign
inserted
visuals
elegans
menu
deluxe
##ervois
captained
refit
solomon
approve
farr
lightly
matching
viewpoints
clever
##affo
counsel
moresby
cyber
takeoff
nightcl
propelled
propeller
pressures
static
mounting
irrit
##plex
pursuing
hamel
vienna
limb
limiting
balliett
burnside
veil
woodstock
travers
excommun
excitement
##ressed
devon
burton
burden
virgil
vermont
salisbury
prediction
borne
holdings
penultimate
researcher
mcgu
stripped
sexpunct
goaltender
deny
denis
peaks
halluc
##ommon
treatise
##esha
cruz
cruising
hostilities
pastoral
premise
safely
rainbow
1868
motors
clearance
panthe
sampled
wilder
responsibilities
violated
violations
quarterf
futur
likelihood
##forward
breakfast
fisheries
nymph
uncom
uncommon
1871
surfaced
backgrounds
commitments
450
hunger
boyz
rolls
rolled
aliens
ironically
mentioning
frequented
mortars
mortality
punish
hawk
counterfeit
valleys
methodist
dedu
gallipoli
aerosmith
giacomo
magnific
cheers
groove
groening
osiris
administrator
spirits
romans
##lights
speeds
masked
beatles
twenty20
conservato
owls
owasco
precinct
precurs
planted
plantation
filling
washed
risks
rushes
laborintus
1820
embodied
environments
jules
oversaw
slender
fatig
borderers
excavated
bishopric
reactors
qualify
##raints
1818
citra
vicious
splash
fragile
converting
customs
fixture
##oshi
adjusted
unfinished
batou
trusted
philosopher
crypt
migrants
mandate
tanaka
contacts
induced
calculators
freshman
steamboat
preferring
1790
levi
pollution
attractions
grossed
isolation
eliminating
##worthy
subtyp
neckl
censorship
rebuild
1766
##books
deposition
stefan
swords
euph
1224
collectors
proceeding
ancestral
mozambican
frog
gleba
vacant
songwriters
lambs
hatred
spaceship
perspectives
gibraltar
integration
geoffrey
crushed
sleeping
sharply
reconcile
obstruct
ordinance
pulling
weighing
conspic
mysore
##ontinent
nueces
exploits
mitchells
amazon
earnings
commemorate
forthcoming
prefers
fulfill
scouting
renovated
veterans
stereotyp
dishes
liga
stimulated
nlf
prophet
prophete
lauderdale
concurrently
morphology
penetrate
mongols
fruits
retrospective
terrace
endorsed
wheelchair
microscopy
vinyl
##brook
spoiled
mondlane
reagent
obscure
klein
yangtze
barrels
homosexuality
deteriorated
conspirators
contradictory
mottola
hymn
gabrielle
phylogenetic
a48
riviere
finnish
casemates
assassinated
avalanche
redesignated
compartments
procedure
judgment
pleasant
prosperity
cushing
pornographic
kodokan
mullen
prognosis
bicycle
lavish
subcontinent
arbeideren
dirty
variants
homarus
autonomous
karamokho
posthumously
lunar
grazing
eucalypts
hilo
##chemical
kalyanas
nirvana
alamos
artifacts
cigar
spherical
courtyard
hubbardton
derek
paternal
werneth
brittany
configuration
claude
adorned
contingent
sergio
confiscated
kristiansand
vapor
wiedensahl
intricate
elongated
explorers
ingredients
bahamas
lechuck
disastrous
vaudeville
enthusiasm
inappropriate
bunkers
kantara
inocybe
conjoined
adjoining
amnesty
caretaker
guatem
sihanouk
takumi
zyg
tromsø
acapulco
helikopter
sexpunctatus
conservatoire
bant
bism
bisc
cw
cil
cites
cds
coven
dive
dans
eb
ej
e5
fool
fford
hir
hire
iod
kow
kath
kree
lign
lans
moll
maker
ng
nay
nod
nab
nant
nour
pon
pix
poven
rd
raven
sabor
tate
tade
vl
vab
wer
yes
ying
zion
zel
zack
zee
##bank
##f2
##function
##folk
##mm
##mings
##mons
##mind
##dong
##deen
##rn
##raction
##tor
##tec
##tail
##ienced
##vor
##van
##gement
##gins
##gling
##hant
##hope
##wing
##with
##kaz
##pine
##zel
##qq
##ος
theological
##eros
##inos
##esque
##enus
##aris
##arre
inability
incend
##itans
##itative
toil
##icke
##iler
##ilia
##tha
##thor
##thal
##step
##amis
##urated
##leted
##rob
##rod
##rock
##rogen
stole
##eti
##etary
forwards
whig
##idd
##idt
reiss
befri
alumn
alicia
##imir
##emas
##emus
##emary
conical
fresco
fraud
chutz
heid
shy
shang
shades
shelling
##agh
##agree
##umas
##essible
sued
##opot
seph
sewer
deacon
##riuc
##aparte
##uns
negr
plating
arrow
arctic
arterial
##allister
##iche
##ocar
exchanged
unse
unopp
unchanged
##antically
##ghai
trach
##ovo
##ellations
##ellular
##asting
notts
##ipse
##rities
##iao
compose
worry
incap
abbre
abrams
scal
scribe
gras
grind
grades
##athlon
amus
ampl
amounted
amended
intest
resupp
reloc
reliable
relocation
timor
commend
newton
newborn
agn
aground
disgr
disasters
disqual
disagree
goose
carly
carson
meh
meals
##izhou
brav
flaws
interference
indem
indul
##weig
attaining
secrets
intox
knoll
asserts
assaulted
##gram
regret
geneal
undergoing
undercover
undergone
##ausible
elk
elvis
acron
quote
revamp
revenues
specified
##onsc
subter
larssen
broom
guan
whereby
capabilities
drill
drives
airstri
strum
strach
suppl
smash
smugg
backward
counts
countess
willie
divide
starr
##alez
invalid
##epec
##ankar
portal
##anni
creations
concessions
cracks
1100
landown
landmarks
barra
baroque
##verness
downed
downward
continuation
##spe
##spoken
##ahar
steamed
steering
discus
providence
persecution
prevailed
expose
expelled
expenses
modelled
modifications
medals
augustine
bestowed
greens
collided
rao
confusing
geometry
humour
lineup
lineback
arches
glou
glenn
gliding
glider
##obic
resting
restruct
nowhere
entrepr
eastwards
octagonal
harb
insight
marching
delia
delivers
interned
##erves
##aeus
refres
251
valued
valentine
explores
handic
##hampton
matched
ledge
patent
patric
marker
markers
localization
##shine
trades
superf
##affected
behead
trevor
##vesen
nightfall
obsession
210
petit
propose
jacket
popularised
donors
sitriuc
grounded
##ynth
viii
variously
engineered
readings
certification
odds
earthstar
verbal
##verse
bowled
settling
apoll
homeland
hometown
snelling
campaigning
gala
galleys
##loo
specialised
discovering
selections
narrated
berkel
wrought
mcman
mcallister
denying
cello
ruwan
averages
quarry
identifying
hardcore
cardell
fundra
urging
improper
transports
diagram
rosey
composing
managerial
admit
malay
malone
inhal
eyed
eyew
indication
synonyms
##selaig
garrett
semic
panic
choices
constructing
hitter
violin
marty
preparatory
lining
substrate
payne
forestry
368
36th
assemble
assemblies
digg
occupying
renault
robes
caut
cauc
1846
examines
dubai
jerome
jerzy
##iscover
headquartered
benign
celeb
concerto
personalities
queenstown
cheaper
polygam
polythe
constitute
uttar
bulld
scotia
ottawa
bedroom
bonaparte
scrapping
edgeworth
babyface
abandonment
casualty
420
controversies
ashley
risen
440
448
alternating
alternatively
climb
climbing
emperors
##nyi
laboratories
modeling
soundtracks
shao
1829
1823
extract
etat
bhai
progressing
assaults
assaulting
demonstrations
rosemary
spectre
spectral
spectacular
terminated
bottle
1817
##blad
apartments
containers
roddick
minded
criticisms
definite
hartley
congressman
sinner
catches
catching
catchment
wishing
thinly
segreg
levy
fanning
chemicals
stalin
organizers
mercer
arsenic
culver
katie
doorway
mycel
astronomer
pupil
coty
dimensions
1761
explosives
conquer
saddle
polehin
nasals
eliza
anzacs
##tieme
gamma
vegetarian
shutout
pageant
sheriff
municipalities
webster
kitana
serialized
transitional
proportions
aggressively
doctoral
congregations
patriotic
horizons
marginal
doctrines
inherent
forgiveness
reproductive
delegation
salvation
ludw
tissues
complications
nsb
##ratina
errone
erratic
asteroids
rendering
petersburg
bomber
##anthrop
shields
exported
amidst
deliberate
paranormal
triangular
disagreement
recommendation
advertisement
chromosomes
renovation
guerrillas
enthusiast
ppg
consolidation
feudal
overturn
cockpit
residues
outfits
concurrent
distributor
excluding
giger
fruiting
terraces
guildford
pronunciation
highlanders
insurgency
wolves
chandler
bosnian
clerk
bmw
buttons
margins
nf6
taiyuan
monitored
syndrome
tatanka
telecommun
hemmemas
mumia
arenas
distortions
amylostereaceae
gifted
ovation
ridiculous
mistakenly
pumping
verne
furniture
inaccessible
outflank
jewellery
hospitallers
pesos
pudding
beetons
compatible
flawed
eminent
tampa
checked
outposts
revisited
gazette
lubric
vhs
coniferous
chennselaig
shanghai
rochdale
upgrade
aberdeen
dharm
raphael
isaac
jewelry
jubilee
tannery
millimeters
ernst
ambiguous
virtuoso
wolverhampton
bankruptcy
alvarez
torrential
gonzalez
leisure
sprites
compulsory
presumably
crocod
psychiatric
aaron
bequeathed
intermitt
antisem
galericulata
inexperienced
eryth
oghratina
seldom
tanzania
vingtieme
vatican
reintrodu
martinez
unreliable
inadequate
plymouth
energetic
kneeling
sybil
demographics
nightclub
magnificent
fatigue
conspicuous
kalyanasund
kreeft
povenmire
tadeusz
chutzpah
unseen
unopposed
resupply
acronym
berkeley
polehinke
60s
ais
azz
bian
boring
beller
cries
dame
ek
eternal
fay
fumble
gan
gum
gull
gaza
hid
horm
hats
icy
jor
jets
java
jitsu
ked
kies
kud
kash
kara
kung
luth
lomb
mf
mick
mik
melt
nal
nil
nub
nasty
osh
ostr
pong
pant
pia
penc
pests
rama
ramps
sg
sig
sard
tear
teng
tilt
tyn
tiber
tjo
t30
upt
vor
vine
vamp
vend
wav
wab
welf
wakes
wagon
ya
yog
yeast
yuk
yuan
##cane
##bling
##bodies
##uj
##fx
##fir
##flies
##frey
##mn
##mit
##mart
##di
##eveloped
##len
##lund
##litz
##sth
##vic
##vous
##vacharya
##yles
##oise
##gge
##gence
##gott
##hen
##hore
##hadow
##wych
##kward
##kick
##kau
##jm
##just
##50
##16
##23
##91
thee
##erun
##erated
##edict
##atics
##oro
##orously
##eni
##arag
inund
inverness
##alg
##alis
##alas
##alyp
##isan
##isely
##asive
##eli
##eliness
##ilated
##ilib
##sted
##stad
##stead
##amation
##uru
##urti
##adors
##adysław
##leaf
##lewine
stur
stun
stub
forts
##lysis
##olo
##oline
asi
asym
wholly
##ivating
##idays
##igma
reiter
reacted
rewrit
beij
alm
ald
alma
alaska
##uta
##uts
##utors
##ersion
##emani
##emaker
anup
chur
chim
chul
chun
chak
chuck
heather
##estre
##estown
shand
shannon
##umann
##opa
##opers
##opus
##opoly
seer
seaf
##unches
##ectic
nek
ores
##illion
##illusion
##allathus
##ichi
##onga
ung
unle
unmar
prints
traged
trudy
spines
sphere
enrich
##ovanni
##elles
##aston
##ounded
compass
clade
claus
##ogie
##oguan
twist
twitter
##aching
abe
abus
scutt
##sover
gruff
grims
manit
allot
intrig
percy
perimeter
peripher
relics
rox
marvin
commod
appreh
disston
disillusion
beck
caric
carne
sheph
sheets
mek
wend
overpass
coil
uphold
outc
flames
cannes
interface
indec
##pras
cents
norbert
norfolk
decomp
attested
blo
formats
charming
joanna
##olds
consul
regain
##formed
generic
underm
embed
##atti
buchan
monoc
maze
syrian
ende
colton
southward
defines
##ologic
saqq
stranded
suppression
generators
locate
locks
backst
transc
willis
diver
##aires
belly
originals
1600
instability
obey
obama
objected
slots
sloven
directive
operators
##ernacle
depleted
barge
signaling
discred
edwin
provoke
helena
prevents
westm
westbound
headwaters
##ceptable
##ismo
juj
juice
juxt
13b
132
idyll
##ysis
justify
furious
##oblast
shortages
lao
launches
##unders
141
builders
antic
harih
accordance
visor
gunfire
deleted
tops
legally
listings
listened
socks
##ographically
controllers
##rency
soluble
valentin
basically
easa
enterpr
communicate
sentiments
realizing
curves
##brand
viewpoint
superb
prizes
freight
treble
rouge
debates
cyn
funn
funnel
differentiated
differentiate
cultivated
cultivation
nightmare
proponents
combines
combinations
##brugge
palin
262
purity
flemish
fortunes
influx
285
sunken
sunshine
equilib
##ynski
ballot
ballads
wooded
torso
devout
##axill
casa
casino
fuller
270
broadside
figur
##gett
declares
rhin
##uclear
##ucleated
apse
##ophon
##ophagus
##fields
hotsp
sala
salon
predation
lyd
lymph
protege
mcmaster
colonization
bays
bayon
colleague
honolulu
goalball
goalkeeper
310
290
29th
holmes
informer
macfar
currents
402
treating
treaties
creators
erlewine
premature
balanced
malaya
mosqu
sequels
probes
antiquar
synch
synonymous
motown
motives
practition
practically
middleton
socialist
suscept
sampras
wilderness
dissatisf
priorities
literal
painters
hearted
martel
payette
caroline
establishes
graduation
greenwich
digest
##meny
puff
1835
transferring
staffed
jeep
companions
layne
1841
boarding
tarant
empires
peterborough
birthplace
gait
mastery
undef
undeveloped
learnt
bombed
giovanni
kramer
polymer
beachhead
plea
awkward
careful
kicker
consideration
acquaint
ignor
savoy
bollywood
bidding
fearing
translate
90th
sacr
cancel
complaining
intersecting
confirmation
boris
lotus
waited
shaoguan
muscar
wintering
dreamers
responding
##breaking
oversee
overshadow
clarified
##iroth
nestlings
rugged
qualification
1816
surreal
murderer
taj
admiration
appealing
container
feeds
rodman
460
640
cuban
plums
auction
flux
##flow
##ezvous
dismissal
microscope
definitions
favourable
chapterhouse
problematic
batters
motorists
migrated
vulcans
impressions
resembled
catchy
mahavira
hemlock
##canic
libraries
iguanodont
nazis
promptly
ronnie
1795
conductor
champlain
astronaut
cinematic
tyres
hindered
##iotic
72nd
romeo
1648
sponsors
corporations
tufar
gravel
speeches
marcell
descendant
packaged
dodgers
enlist
infrared
1127
exposing
patty
patton
sadness
##emiah
automatically
clayton
sighted
pioneers
acknowledge
transitioned
prohibition
0600
kinney
exhaustion
gracehope
puppeteer
ragale
diplomat
densely
piggott
rectory
vaulted
wetlands
skulls
##changing
disturbing
sugarcane
jarvis
fertility
ravana
rigid
sparse
exploitation
##anthan
rendezvous
disbandment
granada
sociological
succeeds
cosmic
cosmopol
catalog
hastily
aggregator
guerrero
aaa
megalithic
devotional
dilke
appreciate
dalmeny
mentmore
redeem
redeveloped
bourbon
distribute
torture
pml
shocking
endorsement
jessica
patches
paradigm
bucket
conveyed
denominations
feminine
guaranteed
eclips
tabernacle
assuming
gutierre
amendments
bahrain
herbiv
1800s
stretching
contradictions
ukrainian
bryant
disguise
suppressed
sacrifices
kanata
myeloid
uyghur
spearhead
telecom
unexpectedly
incredibly
emigration
montenegr
nostrov
annoying
dissenting
gifts
maneuvers
diminished
rufus
uncovered
drowned
inaccur
recaptured
cohes
outflow
contraception
hospitaller
reluctant
crossover
madhvacharya
plenty
gracie
intimid
lofty
reworked
leopard
spontaneous
notoriously
supervising
incorrectly
unanimously
consecrated
syllables
exemplified
kemal
razor
vickers
exaggerated
prussian
nobility
dooley
guangdong
pursuers
klingons
grosmont
mascul
reconciliation
ineffective
##film
enrollment
illuminated
libretto
inheritance
plagiarism
##kovsky
truncated
hereditary
gratitude
calibre
tsubame
venezuela
bizarre
surname
disembark
speckles
trebinje
frankfurt
franciscan
ibrahim
penguins
cunningham
dnl
lounge
władysław
##fleet
##isfactory
foremost
hispanic
applause
transept
cylindrical
ptolemy
cistern
flanders
hamburg
##wetter
planners
unacceptable
unpredict
splicing
marseille
guatemala
ffordd
vaballathus
zeebrugge
incendiary
sephiroth
indemnity
##onscious
restructuring
apollo
inhalation
celebrities
ludwig
kalyanasundara
kieswetter
welfare
##kauhor
##alypse
beijing
grimsby
carnegie
saqqara
juxtap
macfarlane
tufaro
cosmopolitan
gutierrez
nostrovite
70s
90s
a3
aak
aki
axe
aesthetic
beng
bony
cf
ced
ces
cic
cly
cors
caster
citation
cogan
dul
dong
dys
dund
dances
dots
dumb
ducks
eul
erot
fou
fade
fult
fury
gat
gop
gany
gys
gareth
hp
hated
hight
hann
hare
hik
hinted
ions
jig
jell
jian
jake
jelly
kest
kass
kens
kail
kines
kedar
koval
lil
lamin
lanthan
m4
mice
mug
mered
ness
nect
nwa
ore
ole
oars
pore
panch
pector
pfl
pasha
qx
qinz
rb
rn
rented
riker
sz
sul
sain
sake
sapt
sosa
turing
tens
tata
tails
tipped
tirth
uter
vain
vale
violet
warts
ym
yuc
zweig
##croft
##bab
##base
##bane
##uil
##uably
##fol
##fter
##fere
##fried
##moon
##mills
##aise
##net
##nals
##daur
##dress
##dych
##lar
##lah
##rav
##rak
##rators
##rera
##sb
##iel
##iage
##vo
##vil
##yat
##oist
##ofield
##gered
##gau
##gae
##wi
##will
##wll
thurs
##erman
##inac
##inqu
##edia
##atial
##orum
##enberg
inact
inlet
##itas
##itory
##itism
tol
##omics
##ombe
##elim
##elae
##eco
##thi
##thed
##amil
##amia
##adu
##leum
##robe
straw
stelae
##etes
foresh
forelim
##olec
##olith
##olatum
##ivism
##idian
##igy
##igua
##igatum
reese
##aying
alec
##uti
##utory
##emar
##ematic
##emorial
byway
anom
ancon
chong
chased
##ulent
heine
hebr
##andi
shat
shor
shab
shane
shelf
shores
shattered
##agascar
##umont
##aviolet
##odo
suv
##opic
seab
deuter
##unami
neural
neosc
plug
plausible
##abouts
##akut
ara
##allah
exotic
##artan
unas
prone
prpic
tram
trac
trash
spous
spind
spars
spencer
areolatum
enri
enact
##ianus
afanas
compend
compelled
computing
herding
firth
##cco
##ogene
worms
worcestershire
boards
boeing
abdom
abram
contention
graff
mana
##quis
##quemani
amster
resent
relying
reliqu
##idea
##ateral
maraud
##assi
##assic
commended
usace
agnes
agassi
dislike
carriers
##plo
mev
evan
##ffir
##izable
##angs
weiss
weaving
weaker
finances
overc
overhead
overview
##ibars
cooke
##ulture
preca
upright
flick
flats
interacted
interrog
indis
centred
centiped
centenary
poeh
attachment
bloss
blows
moreover
formid
parsons
charism
chariot
##ribes
##alsh
consume
consulted
remed
assumes
thematic
warns
warwick
thresh
regist
regurg
regulatory
reggae
mined
minig
soy
emitted
monc
monolog
monastic
monsters
monopoly
quir
syph
endured
endurance
revue
winn
speculates
suborder
##iewicz
guess
prescribed
saffir
airways
epiph
callisto
polished
singular
opus
backs
transcribed
addicted
divin
terri
croix
##ierz
##ieres
instantly
##vez
##oupe
infin
infest
metis
slabs
crex
operatic
##ietta
milky
este
##erting
showc
constraints
cran
cramp
olds
##yler
depaul
landsc
barron
barges
continually
steal
discl
discon
discern
##aziland
edibility
lois
loops
rediscover
respects
prevailing
advancement
majesty
modification
passer
##omanches
augustan
supportive
brew
prototypes
midday
midlands
confessed
classify
geographic
lineage
arromanches
arched
archive
archie
archives
gluc
##oballus
avi
rested
laev
##cliff
demos
demarc
insec
inshore
swaziland
refin
refuse
refinery
socially
##ographed
destined
basel
basins
305
promo
handwrit
farley
moe
moines
##mede
fieldfare
reprint
##pora
supermar
clem
freak
freighter
morality
fewest
parkway
frenchmen
##icoe
cults
pett
statistical
##encia
##rawl
palac
donation
fortification
freeze
freezing
michelin
sunset
arguably
viable
facto
traveler
primaries
burt
##apeut
sonic
netfl
biom
turtle
turmo
verb
brienne
volt
bowie
settings
homs
homage
knowles
predatory
narvesen
berman
berkshire
berdych
animations
copulation
copenh
mcle
mcdonald
nucleolus
honored
chapat
nato
madness
madagascar
commentaries
journals
railways
holidays
dupl
pitches
informs
macv
##ommel
khe
cardiac
talents
uranium
separates
erad
floodplain
costly
towed
dominic
ballet
##umbling
escaping
venice
mosc
motoko
multin
garner
employs
crewmen
kilograms
panor
banaras
sampling
##othe
futa
nominate
testimon
montagne
lineman
coached
otter
immune
immemorial
##umping
babe
catast
ambitions
renumber
dispro
dispatch
angelo
matilda
platyp
comedies
boxer
logan
battered
undirected
keepers
soval
##weller
productive
galleries
aspir
bradley
polynes
buddha
bounds
32nd
foliage
scheduling
bulb
finishes
accessories
thicker
470
scrut
scranton
drumming
combatants
sirius
precisely
fruitbodies
misle
attendants
attendees
somaliland
kajal
waist
1826
1828
muscular
apparatus
northeastward
contrasts
horsemen
surveying
spectroscop
1811
1813
measurement
muang
##imsa
1808
neutrons
snowy
cinquemani
rods
flagler
emphasised
ivor
ivory
permits
depths
eagles
palestro
mathematic
mutinus
dramat
straightforward
unfair
maxwell
requesting
hartford
kiryat
philosophers
optical
accompaniment
bernstein
migr
raiders
manders
loving
lovely
calculations
miracle
daniels
freshmen
rotating
##uliar
jefferson
trailing
emotionally
gaba
parallax
nazareth
wrestled
winslow
tsunami
hanover
niche
terrorism
1646
1643
marlene
submission
culinary
sarc
exceptionally
hydrox
1776
77th
magician
railroads
resistant
intentional
muldaur
690
nasal
unlock
randolph
brandy
plunkett
hudders
ahimsa
naples
consuming
consumers
frozen
parasaur
##ropolis
bureauc
listener
gorge
gorillas
optional
paleont
detailing
implementation
##rified
bossy
wardrobe
1625
implications
oaks
conscience
barrage
convinces
gibbons
sabot
answered
willingness
hayes
alterations
confederation
switched
theorist
understory
1616
phrases
antiquaries
##ocytic
nicarag
remembering
1660
obstacle
scarce
scarlet
consulting
stripes
analysts
1234
intrud
poisonous
solemn
kamal
marrying
1650
##ontinental
proportional
pfa
peculiar
draftees
exploit
exploited
intellectuals
hansen
mesolithic
uniforms
inferred
prospective
obviously
jurassic
porch
toxicity
disagreements
sociologist
innocence
succeeding
renovations
nameless
vigorously
neighbours
##hyd
whitish
triggered
guidelines
easterly
oklah
lauded
xeo
accumulate
conformity
farmington
phenomena
kauf
kauffman
lecture
reopen
neutrinos
lynch
simplicity
fiji
concealed
eclipse
anatolia
anatomy
pledge
clerical
resurrection
pendragon
stipe
bendis
prayers
carriageway
pandu
executing
continuity
copperfield
brahmin
anthropomorph
deterioration
reminds
intending
templar
petitioned
colombian
confronts
##houses
petroleum
bachchan
zimbab
indoors
repetition
counterattacks
gemma
schmoke
schmidt
optimism
manifestations
cylinder
unicorn
subfoss
subfamily
algorithms
mimic
recapture
antibodies
ultraviolet
orientation
abnormalities
degenerate
dupri
ecosystems
lungs
poured
rabbi
prostitute
seawall
plentiful
krasinski
iberian
iberia
cristina
babylonian
eukaryotic
cummings
cossacks
uhf
##millan
##occup
inclined
blonde
rerouted
rutgers
cheek
sleeves
flexible
dreadnoughts
dareus
rouss
vincent
chasuble
clutch
disgust
capitol
maclagen
urgent
pilgrimage
hetman
andersons
resonance
nocturnal
quotation
antarctic
basilica
nominee
eroded
hilarious
rml
chaykovsky
remembers
subplot
humidity
elegant
auxili
paratroopers
cholera
splend
amalgam
crassweller
convincing
hymenium
taxonomic
mitochondrial
typewriter
conceded
adorjan
promiscuous
morocco
dismantled
spisevognselskapet
bungie
piedras
contaminated
zygoballus
frescoes
negras
abbrev
subterranean
entreprene
aisles
piazzi
compassion
abusir
manitoba
peripheral
shepher
idyllwild
equilibrium
antiquarian
susceptible
casterman
fulton
ganymede
gyswll
jellicoe
meredith
nectar
qinzong
yucatan
ancona
neoscapteriscus
afanasieff
compendium
abdomen
amsterdam
centipede
poehler
epiphany
laevigatum
netflix
turmoil
copenhagen
huddersfield
bureaucr
nicaragua
oklahoma
zimbabwe
gyswllt
aq
aus
apt
aure
aide
apl
akin
bik
biting
bsu
cs
cess
cpr
cnn
d5
dion
dorm
dix
daw
dillon
etern
fain
fence
fades
fancy
fanny
fiance
footh
fbi
fumbled
fidelity
gud
gins
gilda
hue
hench
hiber
ione
ips
ick
iroqu
krit
kron
kany
kah
koen
kerr
lively
lanka
mb
muc
menn
mund
mama
misc
moul
mecca
ned
nass
npr
nah
nails
nha
o2
pis
pou
panned
porter
pinn
ponder
pencer
qf
rc
rans
ried
rasc
sop
sia
sully
sails
sights
sogns
tah
tuls
vag
vish
vance
vai
vivid
viney
wb
wn
wd
weld
wily
waking
wires
xin
xion
yat
yas
zur
zong
zartan
μm
##bul
##beck
##uky
##uaries
##foot
##mast
##afer
##nagar
##dled
##ei
##eon
##lave
##rap
##rano
##tical
##tale
##iens
##iwell
##vir
##vig
##vings
##vann
##volent
##oos
##games
##hange
##wicks
##kang
##pius
##person
##jas
##jud
##zo
##59
##11
##xx
##ʻolulu
therop
##erable
##eroy
##intend
##edd
##esel
##esia
##aru
##arms
##anus
##anist
##aney
##anese
##alt
##alment
##itr
##itations
##ingdon
##isine
##iska
tog
topp
##icides
##oufl
##rels
##omial
##omatic
##eley
##ilion
##thian
##stars
##adin
##adal
##adation
##lem
##lez
sten
stard
stuck
forbs
##olon
##irc
asyl
ascle
##idi
##idar
##iduous
##igall
reuter
beech
alden
aligned
##imated
##imierz
##cht
##chi
isid
##uto
##utational
##emate
congestion
fring
friction
framing
aten
choc
chew
##osome
##osynth
##andro
shir
shrop
shrew
shula
##agements
##aghan
##agorda
##ainen
##avis
##odic
##esse
prod
sep
seizing
sejm
##ctory
dee
##rials
##istem
206
205
208
neal
neoceratops
##ifier
##illtern
plated
plots
arish
arising
##arding
unev
unreal
unjust
##isha
leap
princes
tricks
triceratops
trappers
troupe
spun
spart
spanned
spikes
##oughby
##ounding
recounted
reclass
##rition
computational
herod
cleric
client
clients
ade
adh
adel
##ogly
##ogical
##ousness
##text
##acher
incense
boating
boogie
abl
aboriginal
abingdon
scaff
scarf
grab
grape
grasp
manpower
manila
mankind
##athing
##atham
##athetic
alloy
amiga
intol
intake
resisted
residing
##oka
rover
rooted
mara
marion
marath
maroon
mariners
##ignant
##orms
desirable
applying
aggression
disorgan
cared
carrington
carvings
yearly
##pler
##plan
##plech
sheer
sheikh
meal
##ffen
brest
branded
##luded
offseason
fincher
overd
##ibu
##ibal
##ensation
outward
outlo
canvas
intert
indef
deciduous
timeout
pools
blade
blessing
tex
souls
parag
parole
charities
accession
##olding
remade
remission
remedy
asset
##grat
##grave
mays
mayo
mayer
mayors
genev
howitz
engagements
underparts
pepp
pews
minus
##icky
northumbria
elaine
empress
emmanuel
monog
monroe
monetary
##eytown
thank
##hna
subdu
brow
guer
##orne
##ornis
schafer
phant
phones
presided
capel
##endicular
drilling
strive
##ternish
0000
suppose
generous
simmons
counting
countdown
##inta
willoughby
stark
starboard
crowe
croats
invade
invinc
invoked
millimetres
infect
inflam
infamous
sloan
##ietal
showcase
conclave
constrained
##ucket
##ucking
crude
deposed
steeltown
steffy
##azaki
sixteenth
annie
damietta
headsh
headdress
passport
juarez
medication
medioc
camped
missiles
greco
servant
impet
impending
characterisation
##anca
##ancies
publicized
midland
geffen
titus
coral
archde
avon
trioxide
detract
blackstone
rests
entries
142
janelle
particle
antip
antelope
universally
kee
##aea
refined
253
organising
destro
convince
explode
##entional
cald
standout
oppose
realise
makeup
curs
curtain
##brough
##shi
supervised
superintend
replica
postwar
freeman
lowell
caste
##otti
morels
morhange
lesson
cycles
funnels
215
despair
petra
petty
pressured
goldman
goldberg
232
irb
irresp
romano
romanesque
palis
palae
palaces
richly
richter
purported
puritans
hammond
humanities
##araja
sunny
africans
equated
equality
elector
illusion
vein
affinity
technological
##resses
burd
announce
27s
introductory
biased
needing
turf
merry
facel
philanthrop
cups
volcanic
bowman
walled
galvez
holden
wording
berio
encore
wrist
tomatoes
birch
birkin
bayern
sanford
hof
hoo
hooked
hoʻolulu
denoting
duv
avery
inspire
inspection
identities
halliwell
faust
sourced
recognizing
recognizes
khmer
hardware
##denberry
intervals
urine
improv
separating
eduardo
widened
paste
pastor
diab
costa
costing
safin
35th
malcol
mccay
mccoy
expresses
expressions
motivation
employer
potent
pottery
camoufl
juda
semitic
clearwater
susanna
chooses
muster
poorer
economically
breakout
breakthrough
heartbreak
threaten
uncont
unconscious
assisting
assistants
approximate
gradual
changeup
scenery
ambient
dispers
hopkins
matagorda
melting
astro
jeremiah
largs
hairs
bowls
pairing
undis
undet
undoub
conclude
gallons
adopting
scripted
scripture
chiefs
grooves
osato
polype
spiral
bounded
lifting
pathways
romantically
careg
3000
africanus
imagined
draught
bedard
abandoning
sacrist
blocking
toned
sharma
necessitated
##paid
shaan
shaiva
1822
1827
dunk
entrances
tunes
grasslands
charlton
demonstrates
sori
planetary
##ridged
mobbing
1810
1812
mugh
pounders
truce
orbiter
1803
##khurst
spotlight
doubles
49th
encouragement
65th
functioning
roddenberry
darpa
plumes
repeats
emphasizes
533
fluct
bafta
ibm
exclaim
mutiny
youthful
unfavor
hartman
motorc
taneytown
vertically
stanis
brightness
calcutta
steamboats
mistakes
rotten
cheltenham
cooperate
delaying
1793
wrestle
psyche
psycho
fashioned
storey
tsung
transmissions
hanuman
jacqu
##ranged
grosser
gregorian
isabel
riverside
dubliners
sidney
blew
hungry
therm
therapeut
1770
1775
1772
grief
griev
##comed
660
kelley
tablets
##restrials
echoes
recruits
ghosts
polem
utility
unnatural
latitude
contexts
##enzie
gamers
##strom
cuisine
stylish
decorations
disciplines
yanjing
1219
webb
webber
sighting
float
renewal
lamar
serialised
precedent
axel
##oplan
advisor
piercing
##artha
folds
inaugurated
altering
ribbon
doremus
degradation
muds
innovations
blowing
welcomed
1553
frederic
recipient
metropolis
predominant
acknowledging
gillian
mackenzie
burials
harmonies
expertise
bunbury
isotope
sparrow
booty
crabble
mesopot
picc
possesses
brainw
dictators
1170
evolutionary
yielded
##romatin
catalogue
namco
ricky
pagodas
lincolnshire
noticeable
preserving
linda
fingal
mentally
1150
anticipation
hypothes
drift
conformation
lectures
penetrating
aquatic
altitude
accelerate
fragmentary
faults
mantellisaurus
luminous
receptors
auditioned
autobiographical
tobias
lonely
monday
resurrected
genuinely
pending
lucasarts
lucasfilm
hugo
tornado
stipulated
trenches
broods
heinz
knocking
taiwan
rejoin
arnhem
129xe
scratchley
bubble
honeymoon
intends
lebanese
perpendicular
inventor
vengeance
ketawa
kettering
pilgrims
nostalg
henderson
hadrosaurids
skeletal
screaming
gesture
##gressional
filmmakers
inconsistent
sodium
swallowed
galileo
llanilltern
krasnyi
whistle
marquis
quadruple
inclination
perfection
coyotes
peasants
phonographic
detonated
haunted
mckay
##xd4
reefs
discouraged
trotternish
extraterrestrial
extraterrestrials
hazardous
ibari
##electric
lexington
middlesex
fluorescence
jamaica
kaspar
lamented
levee
swansea
authenticity
bessin
seaport
engraving
emptied
cromwell
steeplech
derivatives
disintegr
cornwallis
voluntary
zimmerman
pamphlet
hitchcock
jovian
chastity
perceive
feasible
subgenus
extravagant
fascinating
yahoo
##patrick
stolac
regeneration
goalscorer
reinstated
messenger
ethiopia
cytogenetics
enclosure
ectomycorrhizal
kressenstein
trypan
spruce
schemes
pantheon
precursor
necklace
biscay
kowang
nantucket
befriended
alumni
heidfeld
incapable
amusement
disqualified
strachan
patricia
culverhouse
overturned
antisemitic
jorge
kedok
luthor
mfume
oshii
tragedy
gruffud
mekong
backstory
enterprises
funniest
hotspur
practitioners
masculine
kesteven
kinesc
kovalainen
pectoral
ymca
thursday
forelimbs
hebrides
shoreline
formidable
soyuz
divinities
palacios
moscow
renumbering
platypus
migratory
aqha
ginsberg
ickes
pencerah
riedesel
sognsvann
vineyards
asclepius
outlook
howitzers
archdeacon
superintendent
malcolm
undoubted
sacristy
mesopotamia
steeplechase
aad
aol
bain
bash
bored
bae
bunch
bds
brawl
c5
cen
cac
cun
cite
cork
cured
cerv
couri
cns
ceded
d6
dov
dose
dove
daly
drey
drif
eile
eman
fok
fading
g3
grit
gide
gann
gaster
gotta
hul
hatt
hint
iw
ip
ike
jall
jerm
joked
jumped
kip
kund
lur
lore
lance
latt
lund
lacy
miz
maus
meld
merv
makers
np
nts
oste
okin
pd
pess
pue
pens
pines
pits
papp
pius
pads
packs
pumps
qad
rak
rall
rour
rost
rage
rides
rump
rogue
ricks
roland
rommel
sass
samp
sury
sinc
sars
samb
sara
sorts
sago
sask
tis
tire
tib
trol
tones
troll
tlc
vas
vector
votive
wign
wren
wards
wiped
xia
xvi
ys
za
zilt
zeit
zeb
##cely
##crest
##bey
##bend
##bucks
##uke
##fork
##fax
##mac
##mount
##metic
##notes
##lord
##lik
##rals
##rils
##sd
##sum
##sity
##tm
##vius
##yel
##oine
##hook
##wart
##pes
##pen
##peck
##12
##87
##70
##76
##xis
##xist
##რი
thieu
##erian
##erick
##inks
##inters
##inwood
##onal
##atae
##orse
##arhad
ink
inez
inactive
ingestion
##anar
##anol
##alent
##alach
##itte
andorian
##isal
##ionation
##regn
##ompt
##ilations
##entful
##thel
##thest
##adilly
##acies
##acab
##acrosaurus
##acerb
onc
onward
onstage
##leep
##ropt
sturn
stint
stink
stagn
##olt
##olian
asleep
##igi
##iger
##igence
##igraph
reused
regroup
##ayas
beams
##chet
##chief
isthm
conning
conve
anesth
anterior
anthodon
##usk
atkinson
chat
##ulse
##ulary
##ulative
heating
heyl
hebe
##verts
shing
shade
shake
shelled
shoe
combs
suf
sunder
##opard
##opao
seism
sepin
degraded
##istingu
203
neot
neill
##ifully
platt
##abe
##abel
ard
arbor
ardan
##ocative
exter
exits
exert
exacerb
unin
unear
uniqu
unrelated
unpaid
##ishi
lees
leaping
leaning
##udad
priced
trump
spray
enqu
##acking
##ovicky
##astopol
notified
reco
recons
recyc
compelling
compressed
##ighton
herons
herries
heresy
##ounce
##ueger
##aryn
claw
cleland
claud
##ustice
twigs
##achandra
booms
scald
maneater
##quay
allan
allusion
##rail
amor
amla
relinqu
roan
roosts
marj
marco
committing
useless
deserves
appalach
##onduct
agr
disk
disob
whoever
goats
##pless
##plane
meand
meadow
meadows
##angled
bricks
finer
finely
overha
overrun
##ensed
precept
upst
upro
upward
outsk
outworld
outraged
flax
interfer
interven
interlude
interchanges
interfere
indoch
##acey
blur
blitz
blessed
blanche
teens
souven
pare
parable
parcel
charit
##cester
noises
accusing
##olde
assort
warship
mayague
##issa
thriving
engages
eller
elastic
elrane
sob
emit
emble
workplace
workforce
##attled
monsen
monaghan
acorn
quoting
quasi
maui
revive
##hness
retitled
southbound
schumann
presidents
saunders
surm
epox
severed
pola
supper
popmart
locom
10m
simulate
simulator
backyard
transp
transpor
transverse
addict
additions
##into
wills
starbucks
##roned
armenian
invaders
brittle
##eping
obit
obedience
infested
slipp
##area
constellation
##uca
##ucent
crested
barack
##upe
signings
##ahi
varrick
varsity
steele
discont
edgar
edmon
looting
famed
proving
provoking
annular
annih
##auer
adverse
##ittac
expend
austen
##inders
nationalism
##ception
occult
mediate
weevil
camping
campgrounds
misses
greeted
impose
impair
implying
brett
repel
reply
repelled
reporters
septim
protr
eurasia
classroom
classrooms
##utional
geopy
myles
corrected
arche
glowing
glaston
ava
avian
blackley
restr
dueidar
lawn
laird
##atsu
146
147
144
deme
antique
antigua
christina
harford
insists
visually
halen
marches
delir
swung
typography
powerhouse
254
socio
##balls
promyel
footing
##lla
##llier
handing
handbag
villains
villiers
fars
farber
champu
sentencing
presenter
paterson
curse
curiosity
localities
##shires
tottenham
superher
priory
replies
postal
##minate
castile
morally
leveled
cyst
##luk
firef
firepower
walton
takeover
projectiles
hauled
frieze
stronghold
petrol
propulsion
wheels
popularized
combining
totaling
paler
263
donn
puritan
##ipper
georges
hampton
freeville
freewhe
ordination
28s
281
heroine
balloon
illum
miy
daven
tenor
devolved
##apeake
sonthi
fullback
##beth
announcing
footballers
meanings
bike
apric
langer
salem
procured
specialists
scientologists
holders
berardi
atlas
wrang
mcgr
mcdon
mcfar
sanctions
sexes
departments
31st
madame
denver
denise
commentator
reboot
florence
duel
machismo
pitchfork
macrian
macpherson
hardest
bravery
treats
sawmills
creativity
##mington
##eshire
hostage
eras
ernie
roberto
diaries
balestre
admitting
malta
yardage
##olev
wilmington
motions
windsor
potatoes
judas
semin
investments
sammy
nominal
strengths
likeness
breakup
##borg
republicans
threatens
huff
hubert
objectors
domains
certainty
graded
greenish
greenland
occupational
catap
jeopard
robed
robots
robbery
penny
disposed
debuting
cathedrals
lays
layered
cadet
1843
angela
lordship
twenties
dubois
melan
##trans
scholastic
38th
morton
gaul
gaunt
logging
bordered
taxon
taxation
vanity
vanished
dynastic
mastering
masterpiece
keeps
sevastopol
osaka
##mona
aleks
revolutionaries
reflections
hospitalization
candy
candace
ghar
purchasing
flowed
fantas
chemist
473
47th
policeman
bolster
##herent
##urgical
searched
metalwork
disappro
translucent
mickey
sucre
bonding
peacekeep
missionaries
precision
handsome
misd
vocalists
ashbee
enjoys
cricketers
extremes
44th
climbed
##heard
laborers
5191
protestants
questionable
weary
branched
alexandra
luz
embal
embank
dungeon
braathen
767
globular
juliet
kilometre
bhak
tuned
claret
clarke
liberator
honorius
sustaining
##roads
illinoise
illustrates
rosen
rosso
spectacle
recommending
lucie
lucrative
psittac
advertised
viewership
reacts
durga
incorporation
esa
esqu
esarhad
hersey
mule
orbiting
conflicting
mechanic
mechanisms
comparative
1806
1809
1804
ridden
landslides
exhibitions
hopefully
citadel
vicars
rodney
convergence
darling
darren
rarity
emphasize
pursues
##urbation
shelton
mutations
mutually
iguana
conditional
addressing
racco
hypn
hypacrosaurus
cooled
repairing
arihant
mandated
sinatra
rogatti
brightest
calculation
falc
dialect
dialogues
flanking
southwestward
gaboon
wrestler
psychology
levant
950
incidental
tsar
updates
niches
bridging
bathing
assassins
1605
jesuit
siddh
tuber
decreases
590
aiming
##niel
traum
expansions
censored
descending
flashes
astronomy
sorties
downloads
package
antony
amateurs
bolivia
dodos
mozart
874
strategically
1126
utilizing
correctly
undertake
undertaking
prohaska
scientifically
netherland
1221
vegetables
styled
leukem
disciple
##escu
1217
archbishops
chamberlain
1900s
ceratopsia
ceratopsids
ascot
equaliser
lbws
renewable
lamina
lambert
fledgling
pinkish
akira
oakley
spends
sabo
shakespearean
integral
integrity
spurred
hollinwood
pigment
ribosomal
1615
gustav
houllier
appropriately
caesarea
loaned
krakow
forgive
resigning
reproduce
delegate
delegated
kimi
livelihood
shearer
obliv
turbine
reciproc
acknowledges
kamil
overlapping
santander
coffin
1632
1639
condemning
installment
installations
neutrality
diesel
jetport
amidships
cousins
ddos
anchored
coordinator
dateline
cosmos
cosmetic
konig
yields
mgb
vigil
brutality
outlaws
gardnerian
presbyterians
vandal
inhabits
vibrant
##wanath
maurit
advocates
advocating
nagar
rudolph
lionel
repertory
rejecting
1270
redevelop
immortals
habropt
##lusive
##anagara
manipulation
manipulating
internationals
nitrogen
revered
reverend
encountering
irregularly
altars
fruition
descriptive
crafted
dickens
redesigned
jesse
pasup
##stitutional
manuela
desperately
receptor
pamela
ascending
##apurana
spoof
phosphorus
compromised
neighbourhood
loneliness
lodged
forehead
resurf
asserting
glamour
baht
brahman
brahma
anthropology
fertilizers
pentwyn
rpm
tentative
umbre
lambeosaurus
adequately
glacis
blending
indirectly
casemate
malaysian
spokesperson
makovicky
vesta
inverted
inquir
seedlings
warehouse
riffs
wreath
optimistic
cortland
hesit
pockets
procedures
cladogram
delightful
judgement
kawai
kawartha
unicode
hierarchy
hierogly
prognostic
recruitment
hutchinson
reluctance
crosby
1390
burrowing
privilege
fisherman
laksh
##proof
chloride
incompet
swallowing
homarinus
subdivisions
pharaohs
conifers
nebula
leopold
unanimous
adultery
apprentice
vicarious
manoeuvre
manoeuvres
cemented
zenobia
reptile
reptiles
choreography
trimurti
spillway
glossy
thunderstorms
rehearsals
aristocratic
jakob
nomencl
searches
nottinghamshire
gavin
mithra
wandering
disadvantage
overthrow
obliged
falsetto
andhra
enlighten
bundle
epidemic
councillor
apocalypse
sovetsky
utterly
cinematography
pedestrian
nutrients
trinsey
magistrates
##luoride
underside
embroiled
ciudad
dhangar
udaygh
abortion
avatars
syncret
lifespan
screenwriter
incubation
grunge
reliability
redoubts
dissolve
stephanie
m18
chesapeake
##ifferent
##ablanca
disassemb
monkeys
hallucin
quarterfinals
nymphs
subtypes
cilicia
iodine
toilet
carlyle
linebacker
refresh
mcmanaman
eyewall
caucasian
telecommunications
dharmendra
vorenus
vampire
##erunner
embedded
westmor
harihara
sacrament
muscarine
erotic
hightower
pflueger
anomaly
sparsely
marauders
registration
syphilis
supermarionation
panoramic
scrutiny
parasaurolophus
roussillon
ipswich
iroquois
ponderosa
vishwanath
wdtv
chocolate
uneventful
reclassified
monogamous
invincible
mediocre
duvall
judaism
motorcycle
psychoactive
therapeutic
grievances
mudslides
piccadilly
trypanos
gruffudd
undoubtedly
dreyf
gasteroid
jallon
jermaine
okinawa
pessim
rourke
wigner
ziltoid
convex
heylin
hebei
sunderland
sepinwall
recycled
amlaib
outskirts
indochina
mayaguez
edmonton
geopyxis
glastonbury
mcfarland
macrianus
esarhaddon
hieroglyph
50s
a6
aides
ayr
bp
bally
bolog
bits
bids
bouts
baked
c4
cia
cade
catt
codes
cuff
ding
dough
dung
daring
danes
drier
eri
eaves
erupt
erupted
faw
fug
fiest
gn
gt
ged
gou
gul
gies
gown
gable
gird
gacy
glands
glyn
gimm
hove
hagg
iz
iter
iago
jow
jma
jaws
jervois
kad
kand
kary
korn
kern
kray
kala
koh
kvy
lour
lush
lips
lomon
mow
mace
meng
mele
mps
muck
mapping
mocked
nak
null
nemat
nacht
oas
ome
ought
piv
pus
pint
pemb
paced
pitted
qin
qing
rr
rie
rack
rah
ripped
ssh
sabb
sacks
tad
tess
tant
taw
vat
vil
vokes
vanya
viper
vidy
wage
wired
waving
wih
xv
xuan
yun
yale
zamb
##bes
##bred
##bark
##bearing
##baden
##uates
##uously
##fg
##fad
##fest
##fix
##felt
##furst
##frog
##mere
##mud
##mail
##madi
##aan
##nings
##dog
##eated
##lay
##lorn
##ride
##rina
##ranes
##tke
##tred
##iard
##vre
##vation
##vich
##vier
##yth
##oj
##gur
##gus
##gmont
##hd
##hs
##ht
##hal
##hart
##wara
##worms
##kawa
##kaya
##pers
##pop
##pitz
##ju
##jen
##jun
##zb
##zao
##72
theod
##ono
##oning
##orement
##orpor
##enong
##enance
##arin
##arity
##arello
inert
ingest
ingen
##anbul
##itud
##inging
##isen
##isand
tosh
##icoot
##icemen
##reth
##reum
##omic
##ilic
##ildu
##ecd
##thood
##throp
##stan
##static
##stones
##amics
##urd
##uro
##uria
##aday
##adically
##acp
##acar
##acious
##acellular
onom
stet
stric
stanz
stowa
stigma
##etz
forage
forster
foreb
forfe
forerunner
forlorn
##irka
asthm
asphal
whal
whale
whitt
##ivided
##idered
##idio
ree
reid
reaff
##ithmetic
##oway
bees
beard
beauc
algy
alumin
alarmed
##chen
##chandra
##utable
##utsch
##emin
congrat
congressional
fries
fritt
ana
anesthetic
atv
chil
chav
chail
choms
cheshire
hep
##osal
##osov
##oscop
##estab
##estine
shap
shaking
shining
##agher
hispani
suu
##opath
seiz
sega
deact
deau
##unets
##unken
##unori
##ifiable
orth
orson
##illation
##illah
plow
##aborde
arid
arous
arund
arne
arises
arrog
arithmetic
##ocene
##oceros
exiting
unav
unint
##ishchandra
##therham
##ppings
lep
leak
leone
lethal
##udu
##uds
trag
trident
spouse
spurs
spha
spider
spouting
##itya
enables
enraged
##ieg
hadar
##astig
notre
##ipes
##ipers
##orders
aforement
##rite
##ueux
clause
clashed
adject
200th
##ogens
twisted
incar
incidence
incarnation
incurred
booth
abused
abridged
scaled
##soon
grang
manic
maniac
##quin
aftersh
alluv
alligators
##raver
amen
amit
amusing
intrigue
pert
perme
pernick
resum
resume
##oker
relic
relent
relies
roomm
rotherham
##assium
##ignon
commence
newcom
##ollen
##rup
sermon
##ondo
playground
disl
goeb
##anson
##ryl
cares
caring
imam
imitated
##plus
shep
evade
##ffie
bres
bras
brough
##ludes
weinstein
finch
overr
overarch
overbearing
coe
coter
coining
prelude
prejud
prebend
upn
outline
outgoing
outspoken
##actions
##actyl
flam
cane
canaan
interst
interiors
indisc
indira
centric
centennial
norwich
poesy
##ksh
##week
blanc
blunt
##iedad
para
paraph
pareles
##manlike
charters
charms
himal
##ixed
knut
knicks
remod
mayne
thrilling
regency
##tshire
howitzer
engraver
pew
peel
peptide
##awan
minted
northwards
northampton
filmography
filmfare
elie
elves
softer
emil
emerson
##atta
bug
buchar
buildu
mons
acet
acarya
maury
syc
##ugs
speculate
colchester
poses
subl
lars
retake
retention
guadal
schofield
wherein
php
pharm
saenz
sauber
drs
drunken
airbus
surak
polo
populous
##nington
setbacks
simul
transpar
divides
divalent
longitud
welles
stare
belts
originating
invading
invasive
milligan
##atchew
##tones
mainstem
infat
slim
sloping
slogan
crev
crete
creighton
milestones
crou
1130
##ylene
depended
##insky
barcel
nearing
signifying
##spot
steered
stepping
discreet
discourse
discrim
discrep
edmond
looted
famously
redund
damn
adviser
advisers
##ructural
headlining
anyway
anymore
nationality
owns
booked
millionaire
1300
efficiently
campech
augusta
servicemen
schooling
impart
impass
impover
breech
repent
finalists
protoc
protomyc
eurasian
rais
raided
greatness
stormed
geologists
geographically
titular
cori
correction
avant
detector
waterline
waterways
restoring
eastbound
143
turnover
##clusive
christie
harassed
harriet
harassment
harishchandra
insom
gunners
halle
menzel
menkauhor
delic
delaborde
internally
skir
skies
sworn
swelling
refining
refrain
sociedad
sola
storyboard
valiant
personified
basidia
##aik
explodes
exploded
promotions
periodical
housew
handheld
##itches
communion
calam
champagne
##booba
reprised
presenters
patents
curt
curator
##she
##shan
superc
replaces
replicate
postm
posting
lowlands
bandicoot
castro
behave
##ushi
trey
membranes
profits
englishwoman
firefly
firecrest
walters
referencing
internationale
authorised
authorizing
culturally
nightstick
211
despatched
navies
statutory
competent
##rawling
grandmother
irv
267
donor
donnel
fleeing
fortun
fortnight
criticizes
activism
georget
agenda
equatorial
argon
argosy
massac
connell
connery
ballroom
factories
bodyguard
davie
travellers
torquay
deva
devi
devoid
##atorium
burrows
bursts
viral
needle
frontman
earthen
verge
verde
wentworth
suffrage
olav
rhone
volatile
##osaurian
apex
homec
##ophy
snout
sniper
salman
circa
lynd
lyce
directorate
centerline
encoded
mcmah
mcfad
nucleot
stripe
strikers
motherboard
312
314
memph
denounced
duets
inspect
inspiring
davidson
macc
macbeth
saturn
406
403
ulama
ultra
intervene
talmud
widening
widowed
athens
hostility
erard
diem
diagonal
regulars
##erma
educate
malibu
veneration
secretive
reductions
wiltshire
indicative
indicator
dealings
garments
potassium
camels
semester
christiana
socialism
kilometer
panthers
##atinate
paula
nominally
##offensive
pacer
breakage
fishes
fishhook
physi
martyn
interviewing
facebook
injustice
substrates
##bands
cyclogenesis
oxides
watkins
caul
cajal
##glers
disposition
jinx
##aptor
droppings
platoons
astra
astoria
conceptual
ferru
ferreum
frequencies
punished
healthcare
temperament
haircut
benares
logistics
jamestown
unitary
dynast
francophone
favorably
undivided
gallien
guarded
aerob
magnum
groves
##monia
bradbury
polygon
standardised
awful
awali
pathway
shootout
envis
corpses
investigates
hornets
##baum
masks
initials
colder
ignoring
dismasted
ramc
ramayana
ramallah
ramnagar
essence
banker
policing
puls
markedly
searchlights
moltke
suspense
suspects
maximus
plantain
cancellation
ashton
sportswrit
textures
complain
complains
fairfax
daisy
confirming
foreigners
benevolent
reforming
muscles
alexis
##rieff
dunes
dunbar
dreamscape
375
chronicler
extraction
contrasting
hawaiians
bharat
##holder
520
elevate
illustrator
roses
rosary
sorcer
spectra
doggett
psal
bottles
##ridges
reactivity
##john
spreads
esports
articulated
heightened
cookbook
proposing
encourages
dinan
viceroy
splitting
gangster
fragrance
mouths
sensory
auber
weakly
coalitions
560
baibars
microphone
faithfully
430
1206
youths
cartridge
trainer
barbatos
barbados
crying
cryptic
fashi
applicant
memorials
54th
bernis
hype
tellicherry
swedes
virtues
induce
reunite
dryden
williamsport
steamship
dutchman
dialog
mahat
gasoline
kurfurst
execute
crashing
1792
levelled
cinemas
cdt
cavity
negotiating
850
bartlett
819
recreated
abbott
hangs
sailor
accomplice
saras
sidel
sidonian
imprompt
accidental
hydroelectric
symbolize
unsuit
unsafe
initiatives
fountains
subtly
benefited
rumble
suprem
980
censor
descends
flashbacks
mycorrhizal
inspirational
seduct
sortie
hillsgrove
jaye
##agnetic
packaging
69th
ornaments
1123
hearings
utilities
##rotected
unlocked
appointments
##ozo
vegetable
cuill
shuttle
photographed
frogs
gatherings
vacation
naive
naacp
ascap
pedro
anekanta
##rifying
fledging
catering
doubtful
mantle
1628
metallicity
moralitas
exhausting
emergence
rhythmic
hobson
implies
unpro
unprotected
flowering
baptism
folding
enthroned
confederations
bombarded
densities
pigments
ribosomes
crushing
streaks
collapsing
muddy
jenny
jennings
livin
pullo
consultation
salvage
cassin
##matia
analytical
deliveries
fundamentally
covington
fertile
vastly
fredrik
frustrating
recipe
recipients
intrins
weighs
surgical
kamala
mackinaw
overlord
1783
cowan
weekends
harmonica
fascination
clinic
magdalena
condemn
satisfying
dualism
revolver
fibrous
dictated
hazel
laughs
laughter
sophie
matthews
wikim
brackets
berliner
mitosis
1142
culmination
sympathy
dusty
vigorous
stereotypes
synthesizers
fundamentalist
ligand
mineswe
sectarian
gentlemen
nelly
toyota
appreciation
bluish
breadth
devastation
pillars
immortality
hypothetical
bourgmont
dripping
##rogate
stabilized
stabilize
manipulate
residences
evaluated
evaluate
retailers
symphonic
lecturer
nitrate
allegory
alphabets
ozplo
tortured
quietly
constituents
cottage
josip
##orphic
miniature
simplified
microscopically
highlander
receptions
buddhism
yamaha
enlargement
ingles
clerks
hugely
pearson
affiliate
predicting
hodg
herbivorous
prevalence
stylistic
reminded
stegosaurus
ornithop
bubbles
bryan
rampart
grenades
template
sweeping
cgi
##hawks
boiler
flavor
accusation
threads
sporadically
monasteries
helmets
pulpit
linga
unconv
unconstitutional
apostolic
ceasefire
gyakut
gendarmes
hacker
chaluky
compartment
maiden
annoyed
anglicus
johannes
craftsmen
cortex
kavkaz
kraus
vitro
omnisc
##orthy
boosted
waldorf
affirmed
uncovering
hairstyles
pondicherry
betrayed
betrayal
embrace
embracing
contraceptive
hutchings
degenerated
##raphs
filmmaker
privileges
unemployed
theologian
prostitutes
galilean
ironclads
suspicion
subdivided
posthumous
gpus
thiele
franjo
chennai
spontane
evangelical
encompassing
eucalypt
eukaryotes
cossack
staunch
flourished
ornamentation
atherfield
perez
stamped
choreographed
prussia
##izzard
pretending
consortium
insisting
eagerly
cartoonist
pluto
brentford
adversely
middlesbrough
selenites
rebounds
mobilized
fluorescent
dreadnought
heterosexual
skeptical
chanting
levees
reclaimed
bobcats
authentic
escalated
sprinting
ccm
hassan
kessler
sagebrush
tirpitz
reappear
arbitration
abruptly
councillors
melodram
sovetskaya
congregationalists
nutrient
legitimacy
lambeosaurines
istanbul
tacuma
ugly
wrecked
recounts
liberties
laureate
cruelty
hathor
splinter
desktop
evidenced
natalie
magnetosphere
merchandising
cognitive
othello
sirex
##rinkers
inevitable
##children
worsened
coleridge
deprecating
boycot
cayuga
dandenong
dipter
pietro
wiesbaden
beaumont
deprived
leptoceratops
inconclusive
brisbane
excommunication
motorsport
euphrates
yingzao
relocate
commendation
disgrace
mehbooba
supplier
landowners
gloucestershire
cautious
polygamist
segregated
mycelium
azzarello
kudirka
nubia
asiatic
anupong
chulkhurst
seaforth
scuttled
disillusioned
caricature
rhinoceros
undefeated
acquaintance
overshadowed
unpredictable
bengal
clyde
dundee
jiankang
kailash
lanthanides
foreshadow
abramowitz
minigames
moncrieff
monologue
landscapes
rediscovered
##cliffe
handwriting
voltage
catastrophic
anthropomorphic
auxiliary
henchmen
mennon
xinjiang
togusa
stardom
sepul
clerics
indefin
headshrinkers
impetueux
detractors
destroys
shaanxi
mughal
stanisław
hypothesized
aadt
gideon
ntsb
saskatchew
exacerbated
appalachian
agrarian
souvenirs
slippage
protruding
promyelocytic
cystidia
davenport
apricot
mcgrath
huffington
aleksander
raccoons
leukemias
pasupathy
umbrella
udayghad
trypanosoma
dreyfus
pessimistic
kvyat
lomonosov
nachtigall
oasis
sabbath
wihtred
stetson
stricken
stanzas
stowaway
asthmatic
chaillet
chomsky
##oscopic
hispaniola
deauville
sphaer
aforementioned
grangetown
bucharest
buildup
barcelona
discrimination
campeche
protomycena
georgetown
mcmahon
mcfadden
gallienus
impromptu
ozploitation
gyakuten
saskatchewan
2s
ayl
aime
akh
aka
aunt
bate
bode
bully
bump
cah
cumbria
caffo
das
dic
dos
dess
dall
dib
dair
dont
dime
dasy
dazz
daco
e3
eun
eats
euse
ehr
fist
fict
fucking
g4
gad
gian
gild
gently
gaps
gdp
hs
hap
hough
hail
hild
hss
hoy
hatter
huss
hott
hints
hano
hube
hoshi
iain
iau
iamb
iona
jailed
kv
kers
kru
kare
kob
kesh
kopp
lec
lough
lach
lout
lite
lime
leck
lorne
lerma
mj
mell
munch
mesh
mersey
nz
nes
ning
nud
nodes
nih
nandi
oure
oax
pi
pact
pug
piety
pino
pasc
picks
piston
qc
qd
rf
rz
rites
sach
siva
sikh
sdp
tø
tic
tup
taut
taped
ticks
tusc
ufo
vos
vog
vida
vita
veera
vowed
vagu
vidal
vfx
wac
wight
wester
woven
xl
xing
xian
yong
yaut
ylides
yacht
zach
æsth
##cibly
##creen
##bott
##bius
##buster
##uat
##ueres
##fia
##fair
##fires
##mant
##mable
##makers
##aunch
##nem
##num
##nect
##deck
##easter
##lined
##listed
##rion
##ril
##rans
##rone
##rann
##sil
##sburg
##table
##tford
##iw
##iars
##iator
##iography
##viate
##yub
##oit
##oire
##ohar
##gir
##hav
##hong
##hens
##haus
##hari
##haven
##hagen
##wang
##watch
##wah
##warm
##kney
##page
##padi
##polar
##jid
##jang
##zam
##zak
##zie
##zynski
##81
##41
##44
thigh
thie
##erie
##erical
##inan
##inish
##edo
##eday
##eson
##esden
##atl
##atis
##atist
##atine
##atable
##oran
##orical
##orah
##eno
##enaries
##arse
##arves
inad
inward
inception
##algar
##itiveness
andros
##isia
##asim
##asse
##asso
tok
toul
##icans
##icles
##ione
##ioners
##omac
##elids
##ecourse
##thong
##thia
##amar
##urious
##urved
##aduri
##aculate
onion
##lef
##leid
##leigh
##lements
##levant
##lehem
ston
stow
stain
stout
stony
stature
##eta
##etian
##etland
fors
forens
forks
foref
forcibly
##olod
##irp
##irut
wharves
##ivities
##idasa
##iges
##igible
reestab
beatty
beirut
aless
alerted
ish
itzam
##utra
##utsu
##emachus
##emakers
##otations
##otox
##otuber
conway
congen
fraz
byrd
anten
anonym
##uso
chai
chien
chicken
##ulg
##cephal
heis
##estra
shon
shou
shale
shouted
##umen
##avers
##avier
##avani
prost
progen
prostate
projection
suits
##opt
##oprop
##opatra
seyd
##cts
deutsch
##rius
##istice
##istani
##unesse
neh
neve
##ifice
##ifax
##ifrat
##illard
plunder
pliny
##abur
##abib
##ocial
unm
unch
unpl
unatt
unau
uninc
unlo
##ishes
##therly
##therford
##antz
leb
levin
prat
prab
prue
prick
praska
prisons
trous
traf
spored
sprawling
enam
enge
enna
##ptions
recoll
recitals
##ourage
##ipal
##ordland
##iae
compilations
hermit
hertford
cland
clif
adot
adili
adverts
200s
##ogl
butch
incess
incoming
boone
booming
abusive
scav
scary
scare
scrol
scared
scattering
scathing
##sohn
grate
grays
manners
manohar
##ureen
##ials
alloys
allusions
##raul
ample
amassed
amnh
peru
perch
perished
##ublished
relaunch
rochester
marian
marred
timothy
commute
commissions
deserved
serap
appellations
##onde
agate
disrep
disaffected
carell
careless
imjin
evoked
##izhong
##adev
brave
brake
weiner
offended
offset
offenses
finite
finder
##ibab
coating
##ensibly
upwards
flip
floss
intersp
intercon
interrupt
intertw
inducing
##prus
centimeter
norwood
decry
decks
deccan
##urna
##weed
##weiler
##ailable
blot
parked
parodied
##ribly
nobles
accents
##alski
conscript
conscription
remun
assent
assim
thematically
warmer
warhead
warwicks
regaining
registry
genetics
howson
recorder
engle
peac
##awi
mints
northbound
elf
elton
emm
emile
email
buzz
monaz
monty
monash
moniker
monothe
quat
mahe
maureen
endear
endless
##ugumi
numism
coloring
suba
subun
retic
southampton
defens
doha
brows
albany
guiding
whereabouts
phu
sau
saud
safer
saiban
capon
capri
airworth
airplane
surplus
##ificant
strap
eponymous
epistem
generosity
singly
##anea
smile
smtv
studded
backbone
backstage
countless
addiction
divination
dividing
divinity
longing
staring
starfleet
receivers
armistice
inviting
invasions
##oya
##oyne
##anko
##ankara
##vegan
obtaining
portree
infring
metz
metabol
slick
directory
milestone
estranged
##fulness
##ropy
##arev
constable
##erne
crac
crater
crakes
craters
distracted
barred
barbed
signifies
runaway
##spots
discount
discipl
##azole
edifice
loire
famitsu
rediff
annum
##auke
shipyards
##ennes
respite
designating
expel
expands
expulsion
##rology
modelling
##engaria
idf
roadways
gregar
imply
imposition
impregn
repeal
reputed
repuls
repatri
successors
protracted
colloqu
rae
raises
systematic
confuc
confesses
classmate
classmates
geographical
lineberger
##apple
extingu
gamesrad
cores
corrupt
corrosion
aveng
detox
detecting
waterfront
waterloo
shortcom
shortlist
restless
laf
lax
laver
##unda
lastly
entourage
1400
1435
##closed
antics
hark
hurd
eleanor
halifax
delusion
keel
swap
captives
legate
258
whitehead
basanti
believer
promulg
##eworthy
##pared
farthest
someday
##ikov
communicated
lightship
fielded
fielders
reprise
leds
makeba
presentations
lawson
lawful
##scan
##brands
billington
##geria
totten
cleopatra
replication
replacements
historiography
cameos
freya
sidekick
behr
mori
morav
##ushing
##adyne
cyc
cyprus
wallez
angus
angola
projecting
projections
royton
##vester
haul
authorization
authoritative
petrie
propel
goodwill
statistically
233
##itaries
summed
popularly
iris
247
266
268
264
puri
purification
flees
##ippers
sitter
representations
hamelin
hamifrat
michele
labrosaurus
286
sunlight
equals
equival
equator
equalled
electrom
westernmost
limitation
ballala
veins
easternmost
excuse
lookout
tenant
##axilla
primrose
burr
casing
casimir
sonata
mixes
##nebu
praises
##cox
hygro
hyaline
fallon
cirrh
meridian
verpa
facades
rhet
beginnings
bows
bowyer
courtesy
apopt
void
voce
wallis
circulate
procure
procession
##iership
naresh
researching
berry
berger
berengaria
encro
wrink
copied
mcpherson
nucleoplasm
colonised
colonisation
striped
condensation
ideally
ideals
sanitation
honoring
natasha
vocational
hoffman
silly
##liest
denote
rebecca
holster
flores
rupt
rutherford
inspected
achille
khou
braun
derided
derrick
fleetwood
sawyer
sawmill
henan
parliaments
archaea
premaxill
premiership
diat
dias
dike
dominating
flynn
##ermo
352nd
begs
begley
malini
achieves
mccar
rainy
##woods
expressive
##oleum
wilbur
wilkes
wilkinson
wilcox
motive
multitude
garuda
garbage
practised
potro
judici
seminal
institutes
kilogram
necroph
banished
banana
samu
samar
samoa
##iffs
academies
violate
violating
futile
operationally
specification
docks
breaker
contractor
linen
uncut
autism
huopao
egyptologists
thomson
injected
otters
##bandian
gradient
assembling
intensely
intensifying
457
##arios
plotting
jeunesse
renaming
thinkers
surrounds
##glings
mighty
boarded
completes
bridgeport
examinations
melodr
empow
empath
ninety
ninja
platts
astarte
upperparts
cornel
junin
junyi
selfish
baden
fergus
oceans
oceania
punj
punted
tempered
benoit
##keye
francaise
favorites
undes
winger
##banks
gallian
consistency
llc
powd
##iseries
aeropl
bombings
sandra
amounting
emerges
cannibal
dumah
osborne
##autla
polyg
polygy
33rd
publishes
romney
meaningless
shootings